{
  "version": "1.0",
  "truncation": null,
  "padding": null,
  "added_tokens": [
    {
      "id": 0,
      "content": "[UNK]",
      "single_word": false,
      "lstrip": false,
      "rstrip": false,
      "normalized": false,
      "special": true
    },
    {
      "id": 1,
      "content": "[PAD]",
      "single_word": false,
      "lstrip": false,
      "rstrip": false,
      "normalized": false,
      "special": true
    },
    {
      "id": 2,
      "content": "[CLS]",
      "single_word": false,
      "lstrip": false,
      "rstrip": false,
      "normalized": false,
      "special": true
    },
    {
      "id": 3,
      "content": "[SEP]",
      "single_word": false,
      "lstrip": false,
      "rstrip": false,
      "normalized": false,
      "special": true
    },
    {
      "id": 4,
      "content": "[MASK]",
      "single_word": false,
      "lstrip": false,
      "rstrip": false,
      "normalized": false,
      "special": true
    }
  ],
  "normalizer": null,
  "pre_tokenizer": {
    "type": "Sequence",
    "pretokenizers": [
      {
        "type": "Whitespace"
      },
      {
        "type": "Punctuation",
        "behavior": "Isolated"
      }
    ]
  },
  "post_processor": null,
  "decoder": null,
  "model": {
    "type": "BPE",
    "dropout": null,
    "unk_token": "[UNK]",
    "continuing_subword_prefix": null,
    "end_of_word_suffix": null,
    "fuse_unk": false,
    "byte_fallback": false,
    "ignore_merges": false,
    "vocab": {
      "[UNK]": 0,
      "[PAD]": 1,
      "[CLS]": 2,
      "[SEP]": 3,
      "[MASK]": 4,
      "-": 5,
      ".": 6,
      "0": 7,
      "1": 8,
      "2": 9,
      "3": 10,
      "4": 11,
      "5": 12,
      "6": 13,
      "7": 14,
      "8": 15,
      "9": 16,
      "<": 17,
      ">": 18,
      "A": 19,
      "B": 20,
      "C": 21,
      "D": 22,
      "E": 23,
      "F": 24,
      "G": 25,
      "H": 26,
      "I": 27,
      "J": 28,
      "K": 29,
      "L": 30,
      "M": 31,
      "N": 32,
      "O": 33,
      "P": 34,
      "Q": 35,
      "R": 36,
      "S": 37,
      "T": 38,
      "U": 39,
      "V": 40,
      "W": 41,
      "X": 42,
      "Y": 43,
      "Z": 44,
      "a": 45,
      "b": 46,
      "c": 47,
      "d": 48,
      "e": 49,
      "f": 50,
      "g": 51,
      "h": 52,
      "i": 53,
      "j": 54,
      "k": 55,
      "l": 56,
      "m": 57,
      "n": 58,
      "o": 59,
      "p": 60,
      "r": 61,
      "s": 62,
      "t": 63,
      "u": 64,
      "v": 65,
      "w": 66,
      "x": 67,
      "y": 68,
      "z": 69,
      "±": 70,
      "·": 71,
      "×": 72,
      "÷": 73,
      "—": 74,
      "‘": 75,
      "’": 76,
      "“": 77,
      "”": 78,
      "…": 79,
      "※": 80,
      "①": 81,
      "②": 82,
      "③": 83,
      "④": 84,
      "⑤": 85,
      "⑥": 86,
      "⑦": 87,
      "⑧": 88,
      "⑨": 89,
      "⑩": 90,
      "⑴": 91,
      "⑾": 92,
      "⑿": 93,
      "⒀": 94,
      "⒁": 95,
      "⒂": 96,
      "⒃": 97,
      "⒄": 98,
      "⒅": 99,
      "⒆": 100,
      "⒇": 101,
      "─": 102,
      "□": 103,
      "○": 104,
      "◎": 105,
      "、": 106,
      "。": 107,
      "〇": 108,
      "〈": 109,
      "〉": 110,
      "《": 111,
      "》": 112,
      "】": 113,
      "〒": 114,
      "〗": 115,
      "イ": 116,
      "ツ": 117,
      "ハ": 118,
      "㈣": 119,
      "㈧": 120,
      "㈨": 121,
      "一": 122,
      "丁": 123,
      "七": 124,
      "丄": 125,
      "万": 126,
      "丈": 127,
      "三": 128,
      "上": 129,
      "下": 130,
      "丌": 131,
      "不": 132,
      "与": 133,
      "丐": 134,
      "丑": 135,
      "专": 136,
      "且": 137,
      "丕": 138,
      "世": 139,
      "丘": 140,
      "丙": 141,
      "业": 142,
      "丛": 143,
      "东": 144,
      "丝": 145,
      "丞": 146,
      "丟": 147,
      "両": 148,
      "丢": 149,
      "两": 150,
      "严": 151,
      "丧": 152,
      "个": 153,
      "丫": 154,
      "丬": 155,
      "中": 156,
      "丰": 157,
      "串": 158,
      "临": 159,
      "丸": 160,
      "丹": 161,
      "为": 162,
      "主": 163,
      "丽": 164,
      "举": 165,
      "乃": 166,
      "久": 167,
      "么": 168,
      "义": 169,
      "之": 170,
      "乌": 171,
      "乍": 172,
      "乎": 173,
      "乏": 174,
      "乐": 175,
      "乒": 176,
      "乓": 177,
      "乔": 178,
      "乖": 179,
      "乘": 180,
      "乙": 181,
      "乜": 182,
      "九": 183,
      "乞": 184,
      "也": 185,
      "习": 186,
      "乡": 187,
      "书": 188,
      "乩": 189,
      "买": 190,
      "乱": 191,
      "乳": 192,
      "乾": 193,
      "了": 194,
      "亇": 195,
      "予": 196,
      "争": 197,
      "事": 198,
      "二": 199,
      "亍": 200,
      "于": 201,
      "亏": 202,
      "云": 203,
      "互": 204,
      "五": 205,
      "井": 206,
      "亘": 207,
      "亙": 208,
      "亚": 209,
      "些": 210,
      "亟": 211,
      "亡": 212,
      "亢": 213,
      "交": 214,
      "亥": 215,
      "亦": 216,
      "产": 217,
      "亨": 218,
      "亩": 219,
      "享": 220,
      "京": 221,
      "亭": 222,
      "亮": 223,
      "亲": 224,
      "亳": 225,
      "亵": 226,
      "人": 227,
      "亿": 228,
      "什": 229,
      "仁": 230,
      "仃": 231,
      "仄": 232,
      "仅": 233,
      "仆": 234,
      "仇": 235,
      "今": 236,
      "介": 237,
      "仍": 238,
      "从": 239,
      "仑": 240,
      "仓": 241,
      "仔": 242,
      "仕": 243,
      "他": 244,
      "仗": 245,
      "付": 246,
      "仙": 247,
      "仝": 248,
      "仞": 249,
      "仟": 250,
      "代": 251,
      "令": 252,
      "以": 253,
      "仪": 254,
      "们": 255,
      "仮": 256,
      "仰": 257,
      "仲": 258,
      "仴": 259,
      "仵": 260,
      "件": 261,
      "价": 262,
      "任": 263,
      "份": 264,
      "仿": 265,
      "企": 266,
      "伉": 267,
      "伊": 268,
      "伍": 269,
      "伎": 270,
      "伏": 271,
      "伐": 272,
      "休": 273,
      "伕": 274,
      "众": 275,
      "优": 276,
      "伙": 277,
      "会": 278,
      "伛": 279,
      "伞": 280,
      "伟": 281,
      "传": 282,
      "伤": 283,
      "伥": 284,
      "伦": 285,
      "伧": 286,
      "伪": 287,
      "伫": 288,
      "伯": 289,
      "估": 290,
      "伲": 291,
      "伴": 292,
      "伶": 293,
      "伸": 294,
      "伺": 295,
      "似": 296,
      "伽": 297,
      "佃": 298,
      "但": 299,
      "位": 300,
      "低": 301,
      "住": 302,
      "佐": 303,
      "佑": 304,
      "体": 305,
      "何": 306,
      "佗": 307,
      "佘": 308,
      "余": 309,
      "佚": 310,
      "佛": 311,
      "作": 312,
      "佝": 313,
      "佞": 314,
      "佟": 315,
      "你": 316,
      "佢": 317,
      "佣": 318,
      "佥": 319,
      "佩": 320,
      "佬": 321,
      "佯": 322,
      "佰": 323,
      "佳": 324,
      "佶": 325,
      "佻": 326,
      "佼": 327,
      "使": 328,
      "侂": 329,
      "侃": 330,
      "侄": 331,
      "侈": 332,
      "侉": 333,
      "例": 334,
      "侍": 335,
      "侏": 336,
      "侔": 337,
      "供": 338,
      "依": 339,
      "侠": 340,
      "侣": 341,
      "侥": 342,
      "侦": 343,
      "侧": 344,
      "侨": 345,
      "侩": 346,
      "侪": 347,
      "侬": 348,
      "侮": 349,
      "侯": 350,
      "侵": 351,
      "侶": 352,
      "便": 353,
      "促": 354,
      "俄": 355,
      "俅": 356,
      "俊": 357,
      "俎": 358,
      "俏": 359,
      "俐": 360,
      "俗": 361,
      "俘": 362,
      "俚": 363,
      "俛": 364,
      "保": 365,
      "俞": 366,
      "俟": 367,
      "俠": 368,
      "信": 369,
      "俦": 370,
      "俨": 371,
      "俩": 372,
      "俪": 373,
      "俬": 374,
      "俭": 375,
      "修": 376,
      "俯": 377,
      "俱": 378,
      "俵": 379,
      "俸": 380,
      "俺": 381,
      "俾": 382,
      "倂": 383,
      "倌": 384,
      "倍": 385,
      "倏": 386,
      "倒": 387,
      "倔": 388,
      "倘": 389,
      "候": 390,
      "倚": 391,
      "倜": 392,
      "借": 393,
      "倡": 394,
      "倥": 395,
      "倦": 396,
      "倨": 397,
      "倩": 398,
      "倪": 399,
      "倫": 400,
      "倬": 401,
      "倭": 402,
      "债": 403,
      "值": 404,
      "倾": 405,
      "偃": 406,
      "假": 407,
      "偈": 408,
      "偌": 409,
      "偎": 410,
      "偏": 411,
      "偕": 412,
      "做": 413,
      "停": 414,
      "健": 415,
      "偬": 416,
      "偶": 417,
      "偷": 418,
      "偻": 419,
      "偿": 420,
      "傀": 421,
      "傅": 422,
      "傈": 423,
      "傍": 424,
      "傜": 425,
      "傢": 426,
      "傥": 427,
      "储": 428,
      "傩": 429,
      "催": 430,
      "傯": 431,
      "傲": 432,
      "傳": 433,
      "傻": 434,
      "働": 435,
      "像": 436,
      "僚": 437,
      "僧": 438,
      "僭": 439,
      "僮": 440,
      "僳": 441,
      "僵": 442,
      "僻": 443,
      "儇": 444,
      "儒": 445,
      "儡": 446,
      "儿": 447,
      "兀": 448,
      "允": 449,
      "元": 450,
      "兄": 451,
      "充": 452,
      "兆": 453,
      "先": 454,
      "光": 455,
      "克": 456,
      "兌": 457,
      "免": 458,
      "兑": 459,
      "兔": 460,
      "兖": 461,
      "兗": 462,
      "党": 463,
      "兜": 464,
      "兢": 465,
      "入": 466,
      "內": 467,
      "全": 468,
      "兩": 469,
      "八": 470,
      "公": 471,
      "六": 472,
      "兮": 473,
      "兰": 474,
      "共": 475,
      "关": 476,
      "兴": 477,
      "兵": 478,
      "其": 479,
      "具": 480,
      "典": 481,
      "兹": 482,
      "养": 483,
      "兼": 484,
      "兽": 485,
      "冀": 486,
      "冃": 487,
      "内": 488,
      "冇": 489,
      "冈": 490,
      "冉": 491,
      "册": 492,
      "再": 493,
      "冑": 494,
      "冒": 495,
      "冕": 496,
      "冗": 497,
      "写": 498,
      "军": 499,
      "农": 500,
      "冠": 501,
      "冢": 502,
      "冤": 503,
      "冥": 504,
      "冬": 505,
      "冯": 506,
      "冰": 507,
      "冲": 508,
      "决": 509,
      "况": 510,
      "冶": 511,
      "冷": 512,
      "冻": 513,
      "冼": 514,
      "冽": 515,
      "净": 516,
      "凄": 517,
      "准": 518,
      "凉": 519,
      "凋": 520,
      "凌": 521,
      "凍": 522,
      "减": 523,
      "凑": 524,
      "凛": 525,
      "凝": 526,
      "几": 527,
      "凡": 528,
      "凤": 529,
      "凫": 530,
      "凭": 531,
      "凯": 532,
      "凰": 533,
      "凳": 534,
      "凶": 535,
      "凸": 536,
      "凹": 537,
      "出": 538,
      "击": 539,
      "函": 540,
      "凿": 541,
      "刀": 542,
      "刁": 543,
      "刃": 544,
      "分": 545,
      "切": 546,
      "刊": 547,
      "刎": 548,
      "刑": 549,
      "划": 550,
      "刖": 551,
      "列": 552,
      "刘": 553,
      "则": 554,
      "刚": 555,
      "创": 556,
      "初": 557,
      "删": 558,
      "判": 559,
      "刨": 560,
      "利": 561,
      "别": 562,
      "刭": 563,
      "刮": 564,
      "到": 565,
      "刳": 566,
      "刴": 567,
      "制": 568,
      "刷": 569,
      "券": 570,
      "刹": 571,
      "刺": 572,
      "刻": 573,
      "刼": 574,
      "刽": 575,
      "剁": 576,
      "剂": 577,
      "剃": 578,
      "削": 579,
      "剌": 580,
      "前": 581,
      "剎": 582,
      "剐": 583,
      "剑": 584,
      "剔": 585,
      "剖": 586,
      "剜": 587,
      "剡": 588,
      "剥": 589,
      "剧": 590,
      "剩": 591,
      "剪": 592,
      "副": 593,
      "割": 594,
      "剽": 595,
      "剿": 596,
      "劈": 597,
      "力": 598,
      "劝": 599,
      "办": 600,
      "功": 601,
      "加": 602,
      "务": 603,
      "劣": 604,
      "动": 605,
      "助": 606,
      "努": 607,
      "劫": 608,
      "劭": 609,
      "励": 610,
      "劲": 611,
      "劳": 612,
      "劾": 613,
      "势": 614,
      "勃": 615,
      "勇": 616,
      "勉": 617,
      "勋": 618,
      "勒": 619,
      "勖": 620,
      "勘": 621,
      "勝": 622,
      "勞": 623,
      "募": 624,
      "勣": 625,
      "勤": 626,
      "勺": 627,
      "勾": 628,
      "勿": 629,
      "匀": 630,
      "包": 631,
      "匆": 632,
      "匈": 633,
      "匍": 634,
      "匐": 635,
      "匕": 636,
      "化": 637,
      "北": 638,
      "匙": 639,
      "匝": 640,
      "匠": 641,
      "匡": 642,
      "匣": 643,
      "匪": 644,
      "匮": 645,
      "匹": 646,
      "区": 647,
      "医": 648,
      "匾": 649,
      "匿": 650,
      "十": 651,
      "千": 652,
      "卅": 653,
      "升": 654,
      "午": 655,
      "卉": 656,
      "半": 657,
      "华": 658,
      "协": 659,
      "卑": 660,
      "卒": 661,
      "卓": 662,
      "单": 663,
      "卖": 664,
      "南": 665,
      "博": 666,
      "卜": 667,
      "卞": 668,
      "占": 669,
      "卡": 670,
      "卢": 671,
      "卣": 672,
      "卤": 673,
      "卦": 674,
      "卧": 675,
      "卩": 676,
      "卫": 677,
      "卯": 678,
      "印": 679,
      "危": 680,
      "即": 681,
      "却": 682,
      "卵": 683,
      "卷": 684,
      "卸": 685,
      "卺": 686,
      "卿": 687,
      "厂": 688,
      "厄": 689,
      "厅": 690,
      "历": 691,
      "厉": 692,
      "压": 693,
      "厌": 694,
      "厓": 695,
      "厕": 696,
      "厘": 697,
      "厚": 698,
      "厝": 699,
      "原": 700,
      "厢": 701,
      "厥": 702,
      "厦": 703,
      "厨": 704,
      "厩": 705,
      "厮": 706,
      "厲": 707,
      "去": 708,
      "县": 709,
      "参": 710,
      "叆": 711,
      "叇": 712,
      "又": 713,
      "叉": 714,
      "及": 715,
      "友": 716,
      "双": 717,
      "反": 718,
      "发": 719,
      "叔": 720,
      "取": 721,
      "受": 722,
      "变": 723,
      "叙": 724,
      "叛": 725,
      "叟": 726,
      "叠": 727,
      "口": 728,
      "古": 729,
      "句": 730,
      "另": 731,
      "叨": 732,
      "叩": 733,
      "只": 734,
      "叫": 735,
      "召": 736,
      "叭": 737,
      "叮": 738,
      "可": 739,
      "台": 740,
      "叱": 741,
      "史": 742,
      "右": 743,
      "叵": 744,
      "叶": 745,
      "号": 746,
      "司": 747,
      "叹": 748,
      "叼": 749,
      "叽": 750,
      "吁": 751,
      "吃": 752,
      "各": 753,
      "吆": 754,
      "合": 755,
      "吉": 756,
      "吊": 757,
      "同": 758,
      "名": 759,
      "后": 760,
      "吏": 761,
      "吐": 762,
      "向": 763,
      "吒": 764,
      "吓": 765,
      "吕": 766,
      "吗": 767,
      "君": 768,
      "吝": 769,
      "吞": 770,
      "吟": 771,
      "吠": 772,
      "吣": 773,
      "否": 774,
      "吧": 775,
      "吨": 776,
      "吩": 777,
      "含": 778,
      "听": 779,
      "吭": 780,
      "吮": 781,
      "启": 782,
      "吱": 783,
      "吴": 784,
      "吵": 785,
      "吶": 786,
      "吸": 787,
      "吹": 788,
      "吻": 789,
      "吼": 790,
      "吽": 791,
      "吾": 792,
      "呀": 793,
      "呂": 794,
      "呃": 795,
      "呆": 796,
      "呈": 797,
      "告": 798,
      "呐": 799,
      "呒": 800,
      "呓": 801,
      "呔": 802,
      "呕": 803,
      "呖": 804,
      "员": 805,
      "呛": 806,
      "呜": 807,
      "呢": 808,
      "呦": 809,
      "周": 810,
      "呯": 811,
      "呰": 812,
      "呱": 813,
      "味": 814,
      "呵": 815,
      "呶": 816,
      "呷": 817,
      "呸": 818,
      "呻": 819,
      "呼": 820,
      "命": 821,
      "咀": 822,
      "咁": 823,
      "咂": 824,
      "咄": 825,
      "咆": 826,
      "咋": 827,
      "和": 828,
      "咎": 829,
      "咏": 830,
      "咐": 831,
      "咒": 832,
      "咕": 833,
      "咖": 834,
      "咙": 835,
      "咚": 836,
      "咛": 837,
      "咤": 838,
      "咦": 839,
      "咧": 840,
      "咨": 841,
      "咩": 842,
      "咪": 843,
      "咫": 844,
      "咬": 845,
      "咭": 846,
      "咯": 847,
      "咱": 848,
      "咳": 849,
      "咸": 850,
      "咻": 851,
      "咽": 852,
      "咿": 853,
      "哀": 854,
      "品": 855,
      "哂": 856,
      "哄": 857,
      "哇": 858,
      "哈": 859,
      "哉": 860,
      "响": 861,
      "哎": 862,
      "哑": 863,
      "哒": 864,
      "哓": 865,
      "哗": 866,
      "哙": 867,
      "哝": 868,
      "哞": 869,
      "哟": 870,
      "哥": 871,
      "哦": 872,
      "哧": 873,
      "哨": 874,
      "哩": 875,
      "哪": 876,
      "哬": 877,
      "哭": 878,
      "哮": 879,
      "哲": 880,
      "哺": 881,
      "哼": 882,
      "哽": 883,
      "哿": 884,
      "唁": 885,
      "唆": 886,
      "唇": 887,
      "唉": 888,
      "唏": 889,
      "唐": 890,
      "唔": 891,
      "唠": 892,
      "唢": 893,
      "唣": 894,
      "唤": 895,
      "唧": 896,
      "唬": 897,
      "唭": 898,
      "售": 899,
      "唯": 900,
      "唰": 901,
      "唱": 902,
      "唳": 903,
      "唵": 904,
      "唷": 905,
      "唾": 906,
      "唿": 907,
      "啃": 908,
      "啄": 909,
      "商": 910,
      "啊": 911,
      "問": 912,
      "啐": 913,
      "啕": 914,
      "啖": 915,
      "啜": 916,
      "啡": 917,
      "啤": 918,
      "啥": 919,
      "啦": 920,
      "啧": 921,
      "啪": 922,
      "啬": 923,
      "啭": 924,
      "啮": 925,
      "啰": 926,
      "啱": 927,
      "啳": 928,
      "啷": 929,
      "啸": 930,
      "啻": 931,
      "啼": 932,
      "啾": 933,
      "喀": 934,
      "喁": 935,
      "喂": 936,
      "喃": 937,
      "善": 938,
      "喆": 939,
      "喇": 940,
      "喈": 941,
      "喉": 942,
      "喊": 943,
      "喋": 944,
      "喏": 945,
      "喑": 946,
      "喔": 947,
      "喘": 948,
      "喙": 949,
      "喚": 950,
      "喜": 951,
      "喝": 952,
      "喟": 953,
      "喧": 954,
      "喳": 955,
      "喷": 956,
      "喻": 957,
      "喽": 958,
      "嗄": 959,
      "嗅": 960,
      "嗌": 961,
      "嗎": 962,
      "嗑": 963,
      "嗒": 964,
      "嗓": 965,
      "嗔": 966,
      "嗖": 967,
      "嗜": 968,
      "嗟": 969,
      "嗡": 970,
      "嗣": 971,
      "嗤": 972,
      "嗥": 973,
      "嗦": 974,
      "嗫": 975,
      "嗬": 976,
      "嗯": 977,
      "嗲": 978,
      "嗳": 979,
      "嗵": 980,
      "嗷": 981,
      "嗽": 982,
      "嗾": 983,
      "嘀": 984,
      "嘈": 985,
      "嘉": 986,
      "嘎": 987,
      "嘘": 988,
      "嘚": 989,
      "嘛": 990,
      "嘟": 991,
      "嘡": 992,
      "嘣": 993,
      "嘤": 994,
      "嘭": 995,
      "嘱": 996,
      "嘲": 997,
      "嘴": 998,
      "嘶": 999,
      "嘹": 1000,
      "嘻": 1001,
      "嘿": 1002,
      "噃": 1003,
      "噍": 1004,
      "噎": 1005,
      "噔": 1006,
      "噗": 1007,
      "噜": 1008,
      "噢": 1009,
      "噤": 1010,
      "器": 1011,
      "噩": 1012,
      "噪": 1013,
      "噫": 1014,
      "噬": 1015,
      "噴": 1016,
      "噶": 1017,
      "噼": 1018,
      "嚄": 1019,
      "嚅": 1020,
      "嚆": 1021,
      "嚎": 1022,
      "嚏": 1023,
      "嚓": 1024,
      "嚕": 1025,
      "嚣": 1026,
      "嚭": 1027,
      "嚷": 1028,
      "嚼": 1029,
      "囀": 1030,
      "囊": 1031,
      "囚": 1032,
      "四": 1033,
      "回": 1034,
      "囟": 1035,
      "因": 1036,
      "团": 1037,
      "団": 1038,
      "囫": 1039,
      "囬": 1040,
      "园": 1041,
      "囯": 1042,
      "困": 1043,
      "囱": 1044,
      "囲": 1045,
      "围": 1046,
      "囵": 1047,
      "囹": 1048,
      "固": 1049,
      "国": 1050,
      "图": 1051,
      "囿": 1052,
      "圃": 1053,
      "圆": 1054,
      "圈": 1055,
      "圉": 1056,
      "國": 1057,
      "圓": 1058,
      "圜": 1059,
      "土": 1060,
      "圣": 1061,
      "在": 1062,
      "圭": 1063,
      "圮": 1064,
      "圯": 1065,
      "地": 1066,
      "圹": 1067,
      "场": 1068,
      "圻": 1069,
      "圾": 1070,
      "址": 1071,
      "坂": 1072,
      "均": 1073,
      "坊": 1074,
      "坍": 1075,
      "坎": 1076,
      "坏": 1077,
      "坐": 1078,
      "坑": 1079,
      "块": 1080,
      "坚": 1081,
      "坛": 1082,
      "坝": 1083,
      "坞": 1084,
      "坟": 1085,
      "坠": 1086,
      "坡": 1087,
      "坤": 1088,
      "坦": 1089,
      "坪": 1090,
      "坯": 1091,
      "坳": 1092,
      "坷": 1093,
      "坼": 1094,
      "垂": 1095,
      "垃": 1096,
      "垆": 1097,
      "型": 1098,
      "垒": 1099,
      "垓": 1100,
      "垛": 1101,
      "垠": 1102,
      "垢": 1103,
      "垣": 1104,
      "垦": 1105,
      "垩": 1106,
      "垫": 1107,
      "垮": 1108,
      "埃": 1109,
      "埋": 1110,
      "城": 1111,
      "埏": 1112,
      "埒": 1113,
      "埔": 1114,
      "埘": 1115,
      "域": 1116,
      "埠": 1117,
      "埤": 1118,
      "埴": 1119,
      "埵": 1120,
      "培": 1121,
      "基": 1122,
      "堂": 1123,
      "堆": 1124,
      "堇": 1125,
      "堉": 1126,
      "堊": 1127,
      "堑": 1128,
      "堕": 1129,
      "堞": 1130,
      "堠": 1131,
      "堡": 1132,
      "堤": 1133,
      "堪": 1134,
      "堯": 1135,
      "堰": 1136,
      "堵": 1137,
      "塌": 1138,
      "塍": 1139,
      "塑": 1140,
      "塔": 1141,
      "塘": 1142,
      "塞": 1143,
      "填": 1144,
      "塱": 1145,
      "塽": 1146,
      "塾": 1147,
      "境": 1148,
      "墅": 1149,
      "墓": 1150,
      "墙": 1151,
      "增": 1152,
      "墟": 1153,
      "墨": 1154,
      "墩": 1155,
      "墬": 1156,
      "墮": 1157,
      "壁": 1158,
      "壅": 1159,
      "壑": 1160,
      "壕": 1161,
      "壤": 1162,
      "士": 1163,
      "壬": 1164,
      "壮": 1165,
      "壯": 1166,
      "声": 1167,
      "壳": 1168,
      "壶": 1169,
      "壹": 1170,
      "夂": 1171,
      "处": 1172,
      "备": 1173,
      "复": 1174,
      "夏": 1175,
      "夕": 1176,
      "外": 1177,
      "夙": 1178,
      "多": 1179,
      "夜": 1180,
      "够": 1181,
      "夤": 1182,
      "大": 1183,
      "天": 1184,
      "太": 1185,
      "夫": 1186,
      "夬": 1187,
      "夭": 1188,
      "央": 1189,
      "失": 1190,
      "头": 1191,
      "夷": 1192,
      "夸": 1193,
      "夹": 1194,
      "夺": 1195,
      "奁": 1196,
      "奂": 1197,
      "奄": 1198,
      "奇": 1199,
      "奈": 1200,
      "奉": 1201,
      "奋": 1202,
      "奎": 1203,
      "奏": 1204,
      "契": 1205,
      "奔": 1206,
      "奕": 1207,
      "奖": 1208,
      "套": 1209,
      "奘": 1210,
      "奚": 1211,
      "奠": 1212,
      "奢": 1213,
      "奥": 1214,
      "奧": 1215,
      "奪": 1216,
      "女": 1217,
      "奴": 1218,
      "奶": 1219,
      "奸": 1220,
      "她": 1221,
      "好": 1222,
      "妁": 1223,
      "如": 1224,
      "妃": 1225,
      "妄": 1226,
      "妆": 1227,
      "妇": 1228,
      "妈": 1229,
      "妊": 1230,
      "妍": 1231,
      "妒": 1232,
      "妓": 1233,
      "妖": 1234,
      "妙": 1235,
      "妞": 1236,
      "妥": 1237,
      "妨": 1238,
      "妩": 1239,
      "妪": 1240,
      "妫": 1241,
      "妮": 1242,
      "妯": 1243,
      "妲": 1244,
      "妹": 1245,
      "妺": 1246,
      "妻": 1247,
      "妾": 1248,
      "姆": 1249,
      "姉": 1250,
      "姊": 1251,
      "始": 1252,
      "姐": 1253,
      "姑": 1254,
      "姓": 1255,
      "委": 1256,
      "姗": 1257,
      "姘": 1258,
      "姚": 1259,
      "姜": 1260,
      "姝": 1261,
      "姣": 1262,
      "姥": 1263,
      "姨": 1264,
      "姬": 1265,
      "姹": 1266,
      "姻": 1267,
      "姿": 1268,
      "威": 1269,
      "娃": 1270,
      "娄": 1271,
      "娆": 1272,
      "娇": 1273,
      "娈": 1274,
      "娉": 1275,
      "娌": 1276,
      "娑": 1277,
      "娓": 1278,
      "娘": 1279,
      "娜": 1280,
      "娟": 1281,
      "娠": 1282,
      "娥": 1283,
      "娩": 1284,
      "娱": 1285,
      "娲": 1286,
      "娴": 1287,
      "娶": 1288,
      "娼": 1289,
      "婀": 1290,
      "婆": 1291,
      "婉": 1292,
      "婊": 1293,
      "婚": 1294,
      "婢": 1295,
      "婦": 1296,
      "婪": 1297,
      "婴": 1298,
      "婵": 1299,
      "婶": 1300,
      "婷": 1301,
      "婿": 1302,
      "媒": 1303,
      "媚": 1304,
      "媪": 1305,
      "媳": 1306,
      "嫁": 1307,
      "嫂": 1308,
      "嫉": 1309,
      "嫌": 1310,
      "嫔": 1311,
      "嫖": 1312,
      "嫡": 1313,
      "嫣": 1314,
      "嫦": 1315,
      "嫩": 1316,
      "嫫": 1317,
      "嬉": 1318,
      "嬖": 1319,
      "嬗": 1320,
      "嬛": 1321,
      "嬰": 1322,
      "嬲": 1323,
      "嬴": 1324,
      "孀": 1325,
      "子": 1326,
      "孑": 1327,
      "孔": 1328,
      "孕": 1329,
      "字": 1330,
      "存": 1331,
      "孙": 1332,
      "孚": 1333,
      "孛": 1334,
      "孜": 1335,
      "孝": 1336,
      "孟": 1337,
      "季": 1338,
      "孤": 1339,
      "孥": 1340,
      "学": 1341,
      "孩": 1342,
      "孪": 1343,
      "孰": 1344,
      "孱": 1345,
      "孳": 1346,
      "孺": 1347,
      "孽": 1348,
      "宁": 1349,
      "它": 1350,
      "宅": 1351,
      "宇": 1352,
      "守": 1353,
      "安": 1354,
      "宋": 1355,
      "完": 1356,
      "宏": 1357,
      "宓": 1358,
      "宕": 1359,
      "宗": 1360,
      "官": 1361,
      "宙": 1362,
      "定": 1363,
      "宛": 1364,
      "宜": 1365,
      "宝": 1366,
      "实": 1367,
      "宠": 1368,
      "审": 1369,
      "客": 1370,
      "宣": 1371,
      "室": 1372,
      "宥": 1373,
      "宦": 1374,
      "宪": 1375,
      "宫": 1376,
      "宮": 1377,
      "宰": 1378,
      "害": 1379,
      "宴": 1380,
      "宵": 1381,
      "家": 1382,
      "宸": 1383,
      "容": 1384,
      "宽": 1385,
      "宾": 1386,
      "宿": 1387,
      "寂": 1388,
      "寃": 1389,
      "寄": 1390,
      "寅": 1391,
      "密": 1392,
      "寇": 1393,
      "富": 1394,
      "寐": 1395,
      "寒": 1396,
      "寓": 1397,
      "寝": 1398,
      "寞": 1399,
      "察": 1400,
      "寡": 1401,
      "寤": 1402,
      "寥": 1403,
      "寧": 1404,
      "寨": 1405,
      "寮": 1406,
      "寰": 1407,
      "寸": 1408,
      "对": 1409,
      "寺": 1410,
      "寻": 1411,
      "导": 1412,
      "対": 1413,
      "寿": 1414,
      "封": 1415,
      "射": 1416,
      "将": 1417,
      "尉": 1418,
      "尊": 1419,
      "小": 1420,
      "少": 1421,
      "尓": 1422,
      "尔": 1423,
      "尖": 1424,
      "尘": 1425,
      "尚": 1426,
      "尝": 1427,
      "尤": 1428,
      "尧": 1429,
      "尪": 1430,
      "尬": 1431,
      "就": 1432,
      "尴": 1433,
      "尶": 1434,
      "尸": 1435,
      "尹": 1436,
      "尺": 1437,
      "尻": 1438,
      "尼": 1439,
      "尽": 1440,
      "尾": 1441,
      "尿": 1442,
      "局": 1443,
      "屁": 1444,
      "层": 1445,
      "屄": 1446,
      "居": 1447,
      "屈": 1448,
      "屉": 1449,
      "届": 1450,
      "屋": 1451,
      "屎": 1452,
      "屏": 1453,
      "屐": 1454,
      "屑": 1455,
      "展": 1456,
      "屜": 1457,
      "属": 1458,
      "屠": 1459,
      "屡": 1460,
      "屣": 1461,
      "履": 1462,
      "屧": 1463,
      "屯": 1464,
      "山": 1465,
      "屹": 1466,
      "屿": 1467,
      "岀": 1468,
      "岁": 1469,
      "岂": 1470,
      "岌": 1471,
      "岐": 1472,
      "岑": 1473,
      "岔": 1474,
      "岖": 1475,
      "岗": 1476,
      "岘": 1477,
      "岚": 1478,
      "岛": 1479,
      "岡": 1480,
      "岢": 1481,
      "岩": 1482,
      "岫": 1483,
      "岬": 1484,
      "岭": 1485,
      "岱": 1486,
      "岳": 1487,
      "岸": 1488,
      "岽": 1489,
      "峋": 1490,
      "峒": 1491,
      "峙": 1492,
      "峡": 1493,
      "峤": 1494,
      "峥": 1495,
      "峦": 1496,
      "峨": 1497,
      "峪": 1498,
      "峭": 1499,
      "峰": 1500,
      "峻": 1501,
      "崂": 1502,
      "崆": 1503,
      "崇": 1504,
      "崈": 1505,
      "崎": 1506,
      "崔": 1507,
      "崖": 1508,
      "崛": 1509,
      "崧": 1510,
      "崩": 1511,
      "崭": 1512,
      "崽": 1513,
      "嵇": 1514,
      "嵋": 1515,
      "嵌": 1516,
      "嵘": 1517,
      "嵩": 1518,
      "嵯": 1519,
      "嶂": 1520,
      "嶙": 1521,
      "巅": 1522,
      "巉": 1523,
      "巍": 1524,
      "川": 1525,
      "州": 1526,
      "巡": 1527,
      "巢": 1528,
      "工": 1529,
      "左": 1530,
      "巧": 1531,
      "巨": 1532,
      "巩": 1533,
      "巫": 1534,
      "差": 1535,
      "己": 1536,
      "已": 1537,
      "巳": 1538,
      "巴": 1539,
      "巷": 1540,
      "巽": 1541,
      "巾": 1542,
      "币": 1543,
      "市": 1544,
      "布": 1545,
      "帅": 1546,
      "帆": 1547,
      "师": 1548,
      "希": 1549,
      "帏": 1550,
      "帐": 1551,
      "帑": 1552,
      "帔": 1553,
      "帕": 1554,
      "帖": 1555,
      "帘": 1556,
      "帙": 1557,
      "帚": 1558,
      "帛": 1559,
      "帜": 1560,
      "帝": 1561,
      "帡": 1562,
      "带": 1563,
      "席": 1564,
      "帮": 1565,
      "帷": 1566,
      "常": 1567,
      "帼": 1568,
      "帽": 1569,
      "幄": 1570,
      "幅": 1571,
      "幌": 1572,
      "幔": 1573,
      "幕": 1574,
      "幙": 1575,
      "幛": 1576,
      "幞": 1577,
      "幡": 1578,
      "幢": 1579,
      "幪": 1580,
      "干": 1581,
      "平": 1582,
      "年": 1583,
      "并": 1584,
      "幸": 1585,
      "幺": 1586,
      "幻": 1587,
      "幼": 1588,
      "幽": 1589,
      "广": 1590,
      "庀": 1591,
      "庁": 1592,
      "庄": 1593,
      "庆": 1594,
      "庇": 1595,
      "床": 1596,
      "序": 1597,
      "庐": 1598,
      "庑": 1599,
      "库": 1600,
      "应": 1601,
      "底": 1602,
      "庖": 1603,
      "店": 1604,
      "庙": 1605,
      "庚": 1606,
      "府": 1607,
      "庞": 1608,
      "废": 1609,
      "庥": 1610,
      "度": 1611,
      "座": 1612,
      "庭": 1613,
      "庳": 1614,
      "庵": 1615,
      "庶": 1616,
      "康": 1617,
      "庸": 1618,
      "廉": 1619,
      "廊": 1620,
      "廋": 1621,
      "廑": 1622,
      "廓": 1623,
      "廖": 1624,
      "廝": 1625,
      "廢": 1626,
      "廨": 1627,
      "廪": 1628,
      "延": 1629,
      "廷": 1630,
      "建": 1631,
      "廿": 1632,
      "开": 1633,
      "弁": 1634,
      "异": 1635,
      "弃": 1636,
      "弄": 1637,
      "弈": 1638,
      "弊": 1639,
      "式": 1640,
      "弑": 1641,
      "弒": 1642,
      "弓": 1643,
      "弔": 1644,
      "引": 1645,
      "弗": 1646,
      "弘": 1647,
      "弛": 1648,
      "弟": 1649,
      "张": 1650,
      "弥": 1651,
      "弦": 1652,
      "弧": 1653,
      "弩": 1654,
      "弭": 1655,
      "弯": 1656,
      "弱": 1657,
      "強": 1658,
      "弹": 1659,
      "强": 1660,
      "弼": 1661,
      "彀": 1662,
      "彐": 1663,
      "归": 1664,
      "当": 1665,
      "录": 1666,
      "彖": 1667,
      "彗": 1668,
      "彝": 1669,
      "彡": 1670,
      "形": 1671,
      "彤": 1672,
      "彦": 1673,
      "彧": 1674,
      "彩": 1675,
      "彪": 1676,
      "彬": 1677,
      "彭": 1678,
      "彰": 1679,
      "影": 1680,
      "彳": 1681,
      "彷": 1682,
      "役": 1683,
      "彻": 1684,
      "彼": 1685,
      "往": 1686,
      "征": 1687,
      "径": 1688,
      "待": 1689,
      "徇": 1690,
      "很": 1691,
      "徊": 1692,
      "律": 1693,
      "徐": 1694,
      "徒": 1695,
      "徕": 1696,
      "得": 1697,
      "徘": 1698,
      "徙": 1699,
      "御": 1700,
      "徨": 1701,
      "循": 1702,
      "徬": 1703,
      "徭": 1704,
      "微": 1705,
      "徵": 1706,
      "德": 1707,
      "徽": 1708,
      "心": 1709,
      "必": 1710,
      "忆": 1711,
      "忌": 1712,
      "忍": 1713,
      "忏": 1714,
      "忐": 1715,
      "忑": 1716,
      "忒": 1717,
      "忖": 1718,
      "志": 1719,
      "忘": 1720,
      "忙": 1721,
      "忝": 1722,
      "忞": 1723,
      "忠": 1724,
      "忡": 1725,
      "忤": 1726,
      "忧": 1727,
      "忪": 1728,
      "快": 1729,
      "忭": 1730,
      "忱": 1731,
      "念": 1732,
      "忸": 1733,
      "忻": 1734,
      "忽": 1735,
      "忾": 1736,
      "忿": 1737,
      "怀": 1738,
      "态": 1739,
      "怂": 1740,
      "怃": 1741,
      "怄": 1742,
      "怅": 1743,
      "怆": 1744,
      "怎": 1745,
      "怏": 1746,
      "怒": 1747,
      "怔": 1748,
      "怕": 1749,
      "怖": 1750,
      "怙": 1751,
      "怛": 1752,
      "怜": 1753,
      "思": 1754,
      "怠": 1755,
      "怡": 1756,
      "急": 1757,
      "怦": 1758,
      "性": 1759,
      "怨": 1760,
      "怩": 1761,
      "怪": 1762,
      "怫": 1763,
      "怯": 1764,
      "怵": 1765,
      "总": 1766,
      "怼": 1767,
      "怿": 1768,
      "恁": 1769,
      "恂": 1770,
      "恃": 1771,
      "恋": 1772,
      "恍": 1773,
      "恐": 1774,
      "恒": 1775,
      "恕": 1776,
      "恙": 1777,
      "恚": 1778,
      "恢": 1779,
      "恣": 1780,
      "恤": 1781,
      "恨": 1782,
      "恩": 1783,
      "恪": 1784,
      "恫": 1785,
      "恬": 1786,
      "恭": 1787,
      "息": 1788,
      "恰": 1789,
      "恳": 1790,
      "恶": 1791,
      "恸": 1792,
      "恺": 1793,
      "恻": 1794,
      "恼": 1795,
      "恿": 1796,
      "悄": 1797,
      "悅": 1798,
      "悉": 1799,
      "悌": 1800,
      "悍": 1801,
      "悒": 1802,
      "悔": 1803,
      "悖": 1804,
      "悚": 1805,
      "悛": 1806,
      "悝": 1807,
      "悟": 1808,
      "悠": 1809,
      "患": 1810,
      "悦": 1811,
      "您": 1812,
      "悬": 1813,
      "悭": 1814,
      "悯": 1815,
      "悱": 1816,
      "悲": 1817,
      "悴": 1818,
      "悸": 1819,
      "悻": 1820,
      "悼": 1821,
      "悽": 1822,
      "情": 1823,
      "惆": 1824,
      "惇": 1825,
      "惊": 1826,
      "惋": 1827,
      "惑": 1828,
      "惕": 1829,
      "惘": 1830,
      "惚": 1831,
      "惜": 1832,
      "惟": 1833,
      "惠": 1834,
      "惦": 1835,
      "惧": 1836,
      "惨": 1837,
      "惩": 1838,
      "惫": 1839,
      "惬": 1840,
      "惭": 1841,
      "惮": 1842,
      "惯": 1843,
      "惰": 1844,
      "惲": 1845,
      "想": 1846,
      "惴": 1847,
      "惶": 1848,
      "惹": 1849,
      "惺": 1850,
      "愀": 1851,
      "愁": 1852,
      "愆": 1853,
      "愈": 1854,
      "愉": 1855,
      "愍": 1856,
      "愎": 1857,
      "意": 1858,
      "愕": 1859,
      "愚": 1860,
      "感": 1861,
      "愠": 1862,
      "愣": 1863,
      "愤": 1864,
      "愧": 1865,
      "愫": 1866,
      "愿": 1867,
      "慈": 1868,
      "慌": 1869,
      "慎": 1870,
      "慑": 1871,
      "慕": 1872,
      "慢": 1873,
      "慧": 1874,
      "慨": 1875,
      "慰": 1876,
      "慵": 1877,
      "慷": 1878,
      "憋": 1879,
      "憎": 1880,
      "憔": 1881,
      "憝": 1882,
      "憧": 1883,
      "憨": 1884,
      "憩": 1885,
      "憬": 1886,
      "憾": 1887,
      "懂": 1888,
      "懈": 1889,
      "應": 1890,
      "懊": 1891,
      "懋": 1892,
      "懑": 1893,
      "懒": 1894,
      "懔": 1895,
      "懦": 1896,
      "懵": 1897,
      "懿": 1898,
      "戆": 1899,
      "戈": 1900,
      "戊": 1901,
      "戋": 1902,
      "戌": 1903,
      "戍": 1904,
      "戎": 1905,
      "戏": 1906,
      "成": 1907,
      "我": 1908,
      "戒": 1909,
      "戕": 1910,
      "或": 1911,
      "战": 1912,
      "戚": 1913,
      "戛": 1914,
      "戟": 1915,
      "戢": 1916,
      "截": 1917,
      "戮": 1918,
      "戯": 1919,
      "戳": 1920,
      "戴": 1921,
      "户": 1922,
      "戾": 1923,
      "房": 1924,
      "所": 1925,
      "扁": 1926,
      "扇": 1927,
      "扈": 1928,
      "扉": 1929,
      "手": 1930,
      "才": 1931,
      "扎": 1932,
      "扑": 1933,
      "扒": 1934,
      "打": 1935,
      "扔": 1936,
      "托": 1937,
      "扛": 1938,
      "扞": 1939,
      "扣": 1940,
      "执": 1941,
      "扩": 1942,
      "扪": 1943,
      "扫": 1944,
      "扬": 1945,
      "扭": 1946,
      "扮": 1947,
      "扯": 1948,
      "扰": 1949,
      "扳": 1950,
      "扶": 1951,
      "批": 1952,
      "扼": 1953,
      "找": 1954,
      "承": 1955,
      "技": 1956,
      "抄": 1957,
      "抉": 1958,
      "把": 1959,
      "抑": 1960,
      "抒": 1961,
      "抓": 1962,
      "投": 1963,
      "抖": 1964,
      "抗": 1965,
      "折": 1966,
      "抚": 1967,
      "抛": 1968,
      "抟": 1969,
      "抡": 1970,
      "抢": 1971,
      "护": 1972,
      "报": 1973,
      "披": 1974,
      "抬": 1975,
      "抱": 1976,
      "抵": 1977,
      "抹": 1978,
      "抻": 1979,
      "押": 1980,
      "抽": 1981,
      "抿": 1982,
      "拂": 1983,
      "拄": 1984,
      "担": 1985,
      "拆": 1986,
      "拇": 1987,
      "拈": 1988,
      "拉": 1989,
      "拊": 1990,
      "拌": 1991,
      "拍": 1992,
      "拐": 1993,
      "拒": 1994,
      "拓": 1995,
      "拔": 1996,
      "拖": 1997,
      "拗": 1998,
      "拘": 1999,
      "拙": 2000,
      "拚": 2001,
      "招": 2002,
      "拜": 2003,
      "拟": 2004,
      "拢": 2005,
      "拣": 2006,
      "拥": 2007,
      "拦": 2008,
      "拧": 2009,
      "拨": 2010,
      "择": 2011,
      "拫": 2012,
      "括": 2013,
      "拭": 2014,
      "拯": 2015,
      "拱": 2016,
      "拳": 2017,
      "拴": 2018,
      "拶": 2019,
      "拷": 2020,
      "拼": 2021,
      "拽": 2022,
      "拾": 2023,
      "拿": 2024,
      "持": 2025,
      "挂": 2026,
      "指": 2027,
      "按": 2028,
      "挎": 2029,
      "挑": 2030,
      "挖": 2031,
      "挚": 2032,
      "挛": 2033,
      "挞": 2034,
      "挟": 2035,
      "挠": 2036,
      "挡": 2037,
      "挢": 2038,
      "挣": 2039,
      "挤": 2040,
      "挥": 2041,
      "挨": 2042,
      "挪": 2043,
      "挫": 2044,
      "振": 2045,
      "挲": 2046,
      "挹": 2047,
      "挺": 2048,
      "挽": 2049,
      "挾": 2050,
      "挿": 2051,
      "捂": 2052,
      "捅": 2053,
      "捆": 2054,
      "捉": 2055,
      "捋": 2056,
      "捌": 2057,
      "捍": 2058,
      "捎": 2059,
      "捏": 2060,
      "捐": 2061,
      "捕": 2062,
      "捞": 2063,
      "损": 2064,
      "捡": 2065,
      "换": 2066,
      "捣": 2067,
      "捤": 2068,
      "捧": 2069,
      "捨": 2070,
      "捫": 2071,
      "捭": 2072,
      "据": 2073,
      "捱": 2074,
      "捶": 2075,
      "捷": 2076,
      "捺": 2077,
      "捻": 2078,
      "捽": 2079,
      "掀": 2080,
      "掂": 2081,
      "掇": 2082,
      "授": 2083,
      "掉": 2084,
      "掊": 2085,
      "掌": 2086,
      "掏": 2087,
      "掐": 2088,
      "排": 2089,
      "掖": 2090,
      "掘": 2091,
      "掠": 2092,
      "探": 2093,
      "掣": 2094,
      "接": 2095,
      "控": 2096,
      "推": 2097,
      "掩": 2098,
      "措": 2099,
      "掬": 2100,
      "掮": 2101,
      "掰": 2102,
      "掳": 2103,
      "掴": 2104,
      "掷": 2105,
      "掸": 2106,
      "掺": 2107,
      "掼": 2108,
      "揄": 2109,
      "揆": 2110,
      "揉": 2111,
      "揍": 2112,
      "揎": 2113,
      "描": 2114,
      "提": 2115,
      "插": 2116,
      "揖": 2117,
      "換": 2118,
      "握": 2119,
      "揣": 2120,
      "揩": 2121,
      "揪": 2122,
      "揭": 2123,
      "揲": 2124,
      "援": 2125,
      "揶": 2126,
      "揸": 2127,
      "揽": 2128,
      "揿": 2129,
      "搀": 2130,
      "搁": 2131,
      "搂": 2132,
      "搅": 2133,
      "搏": 2134,
      "搐": 2135,
      "搓": 2136,
      "搔": 2137,
      "搜": 2138,
      "搞": 2139,
      "搠": 2140,
      "搡": 2141,
      "搢": 2142,
      "搥": 2143,
      "搦": 2144,
      "搧": 2145,
      "搪": 2146,
      "搬": 2147,
      "搭": 2148,
      "搴": 2149,
      "携": 2150,
      "搽": 2151,
      "搿": 2152,
      "摄": 2153,
      "摅": 2154,
      "摆": 2155,
      "摇": 2156,
      "摊": 2157,
      "摒": 2158,
      "摔": 2159,
      "摘": 2160,
      "摧": 2161,
      "摩": 2162,
      "摰": 2163,
      "摸": 2164,
      "摹": 2165,
      "撂": 2166,
      "撄": 2167,
      "撅": 2168,
      "撇": 2169,
      "撑": 2170,
      "撒": 2171,
      "撕": 2172,
      "撖": 2173,
      "撗": 2174,
      "撙": 2175,
      "撞": 2176,
      "撤": 2177,
      "撩": 2178,
      "撬": 2179,
      "播": 2180,
      "撮": 2181,
      "撰": 2182,
      "撵": 2183,
      "撺": 2184,
      "撼": 2185,
      "擀": 2186,
      "擁": 2187,
      "擂": 2188,
      "擅": 2189,
      "操": 2190,
      "擎": 2191,
      "擒": 2192,
      "擔": 2193,
      "擘": 2194,
      "據": 2195,
      "擞": 2196,
      "擠": 2197,
      "擢": 2198,
      "擤": 2199,
      "擦": 2200,
      "攀": 2201,
      "攉": 2202,
      "攒": 2203,
      "攘": 2204,
      "攞": 2205,
      "攫": 2206,
      "支": 2207,
      "收": 2208,
      "攸": 2209,
      "改": 2210,
      "攻": 2211,
      "放": 2212,
      "政": 2213,
      "敁": 2214,
      "故": 2215,
      "效": 2216,
      "敉": 2217,
      "敌": 2218,
      "敎": 2219,
      "敏": 2220,
      "救": 2221,
      "敕": 2222,
      "敖": 2223,
      "教": 2224,
      "敛": 2225,
      "敝": 2226,
      "敞": 2227,
      "敢": 2228,
      "散": 2229,
      "敦": 2230,
      "敬": 2231,
      "数": 2232,
      "敲": 2233,
      "整": 2234,
      "敷": 2235,
      "文": 2236,
      "斋": 2237,
      "斌": 2238,
      "斐": 2239,
      "斑": 2240,
      "斓": 2241,
      "斗": 2242,
      "料": 2243,
      "斛": 2244,
      "斜": 2245,
      "斟": 2246,
      "斡": 2247,
      "斤": 2248,
      "斥": 2249,
      "斧": 2250,
      "斩": 2251,
      "斫": 2252,
      "断": 2253,
      "斯": 2254,
      "新": 2255,
      "方": 2256,
      "於": 2257,
      "施": 2258,
      "旁": 2259,
      "旃": 2260,
      "旄": 2261,
      "旅": 2262,
      "旋": 2263,
      "旌": 2264,
      "旎": 2265,
      "族": 2266,
      "旒": 2267,
      "旖": 2268,
      "旗": 2269,
      "无": 2270,
      "旡": 2271,
      "既": 2272,
      "旣": 2273,
      "日": 2274,
      "旦": 2275,
      "旧": 2276,
      "旨": 2277,
      "早": 2278,
      "旬": 2279,
      "旭": 2280,
      "旰": 2281,
      "旱": 2282,
      "旲": 2283,
      "旳": 2284,
      "时": 2285,
      "旷": 2286,
      "旸": 2287,
      "旺": 2288,
      "昂": 2289,
      "昃": 2290,
      "昆": 2291,
      "昇": 2292,
      "昊": 2293,
      "昌": 2294,
      "明": 2295,
      "昏": 2296,
      "易": 2297,
      "昔": 2298,
      "昕": 2299,
      "昙": 2300,
      "星": 2301,
      "映": 2302,
      "春": 2303,
      "昧": 2304,
      "昨": 2305,
      "昭": 2306,
      "是": 2307,
      "昴": 2308,
      "昵": 2309,
      "昼": 2310,
      "昽": 2311,
      "显": 2312,
      "晁": 2313,
      "晃": 2314,
      "晋": 2315,
      "晌": 2316,
      "晏": 2317,
      "晒": 2318,
      "晓": 2319,
      "晕": 2320,
      "晖": 2321,
      "晗": 2322,
      "晚": 2323,
      "晞": 2324,
      "晟": 2325,
      "晡": 2326,
      "晢": 2327,
      "晤": 2328,
      "晦": 2329,
      "晨": 2330,
      "普": 2331,
      "景": 2332,
      "晰": 2333,
      "晴": 2334,
      "晶": 2335,
      "智": 2336,
      "晾": 2337,
      "暂": 2338,
      "暄": 2339,
      "暇": 2340,
      "暈": 2341,
      "暌": 2342,
      "暍": 2343,
      "暐": 2344,
      "暑": 2345,
      "暖": 2346,
      "暗": 2347,
      "暧": 2348,
      "暨": 2349,
      "暮": 2350,
      "暴": 2351,
      "暹": 2352,
      "暾": 2353,
      "曙": 2354,
      "曜": 2355,
      "曝": 2356,
      "曦": 2357,
      "曩": 2358,
      "曰": 2359,
      "曲": 2360,
      "曳": 2361,
      "更": 2362,
      "書": 2363,
      "曹": 2364,
      "曼": 2365,
      "曾": 2366,
      "替": 2367,
      "最": 2368,
      "會": 2369,
      "月": 2370,
      "有": 2371,
      "朋": 2372,
      "服": 2373,
      "朔": 2374,
      "朕": 2375,
      "朗": 2376,
      "望": 2377,
      "朝": 2378,
      "期": 2379,
      "朦": 2380,
      "木": 2381,
      "未": 2382,
      "末": 2383,
      "本": 2384,
      "札": 2385,
      "朮": 2386,
      "术": 2387,
      "朱": 2388,
      "朴": 2389,
      "朵": 2390,
      "机": 2391,
      "朽": 2392,
      "杀": 2393,
      "杂": 2394,
      "权": 2395,
      "杆": 2396,
      "杉": 2397,
      "李": 2398,
      "杏": 2399,
      "材": 2400,
      "村": 2401,
      "杓": 2402,
      "杖": 2403,
      "杜": 2404,
      "杞": 2405,
      "束": 2406,
      "杠": 2407,
      "条": 2408,
      "来": 2409,
      "杨": 2410,
      "杭": 2411,
      "杯": 2412,
      "杰": 2413,
      "東": 2414,
      "杲": 2415,
      "杳": 2416,
      "杵": 2417,
      "杷": 2418,
      "杼": 2419,
      "松": 2420,
      "板": 2421,
      "极": 2422,
      "构": 2423,
      "枇": 2424,
      "枉": 2425,
      "析": 2426,
      "枕": 2427,
      "林": 2428,
      "枘": 2429,
      "枚": 2430,
      "果": 2431,
      "枝": 2432,
      "枢": 2433,
      "枣": 2434,
      "枪": 2435,
      "枫": 2436,
      "枭": 2437,
      "枯": 2438,
      "枰": 2439,
      "枳": 2440,
      "架": 2441,
      "枷": 2442,
      "柄": 2443,
      "柏": 2444,
      "某": 2445,
      "染": 2446,
      "柔": 2447,
      "柘": 2448,
      "柙": 2449,
      "柚": 2450,
      "柜": 2451,
      "柝": 2452,
      "柠": 2453,
      "柢": 2454,
      "查": 2455,
      "柩": 2456,
      "柬": 2457,
      "柭": 2458,
      "柯": 2459,
      "柰": 2460,
      "柱": 2461,
      "柳": 2462,
      "柴": 2463,
      "査": 2464,
      "柽": 2465,
      "柿": 2466,
      "栀": 2467,
      "栅": 2468,
      "标": 2469,
      "栈": 2470,
      "栉": 2471,
      "栋": 2472,
      "栏": 2473,
      "树": 2474,
      "栖": 2475,
      "栗": 2476,
      "校": 2477,
      "栩": 2478,
      "株": 2479,
      "栲": 2480,
      "栴": 2481,
      "样": 2482,
      "核": 2483,
      "根": 2484,
      "栺": 2485,
      "格": 2486,
      "栽": 2487,
      "栾": 2488,
      "桀": 2489,
      "桁": 2490,
      "桂": 2491,
      "桃": 2492,
      "桅": 2493,
      "框": 2494,
      "案": 2495,
      "桉": 2496,
      "桌": 2497,
      "桐": 2498,
      "桑": 2499,
      "桓": 2500,
      "桔": 2501,
      "桕": 2502,
      "桠": 2503,
      "桢": 2504,
      "档": 2505,
      "桥": 2506,
      "桦": 2507,
      "桧": 2508,
      "桨": 2509,
      "桩": 2510,
      "桶": 2511,
      "梁": 2512,
      "梃": 2513,
      "梅": 2514,
      "梆": 2515,
      "梓": 2516,
      "梗": 2517,
      "梢": 2518,
      "梦": 2519,
      "梧": 2520,
      "梨": 2521,
      "梭": 2522,
      "梯": 2523,
      "械": 2524,
      "梳": 2525,
      "梵": 2526,
      "检": 2527,
      "棂": 2528,
      "棄": 2529,
      "棉": 2530,
      "棊": 2531,
      "棋": 2532,
      "棍": 2533,
      "棒": 2534,
      "棕": 2535,
      "棘": 2536,
      "棚": 2537,
      "棠": 2538,
      "棣": 2539,
      "森": 2540,
      "棱": 2541,
      "棵": 2542,
      "棹": 2543,
      "棺": 2544,
      "椅": 2545,
      "植": 2546,
      "椎": 2547,
      "椒": 2548,
      "椟": 2549,
      "椭": 2550,
      "椰": 2551,
      "椽": 2552,
      "椿": 2553,
      "楔": 2554,
      "楚": 2555,
      "楞": 2556,
      "楠": 2557,
      "楣": 2558,
      "楪": 2559,
      "楫": 2560,
      "業": 2561,
      "楷": 2562,
      "楸": 2563,
      "楹": 2564,
      "楼": 2565,
      "概": 2566,
      "榄": 2567,
      "榆": 2568,
      "榈": 2569,
      "榕": 2570,
      "榜": 2571,
      "榨": 2572,
      "榫": 2573,
      "榭": 2574,
      "榴": 2575,
      "榷": 2576,
      "榻": 2577,
      "槁": 2578,
      "槃": 2579,
      "槊": 2580,
      "槌": 2581,
      "槎": 2582,
      "槐": 2583,
      "槛": 2584,
      "槜": 2585,
      "槽": 2586,
      "槿": 2587,
      "樊": 2588,
      "樑": 2589,
      "樘": 2590,
      "標": 2591,
      "樟": 2592,
      "模": 2593,
      "横": 2594,
      "樯": 2595,
      "樱": 2596,
      "樵": 2597,
      "樽": 2598,
      "橄": 2599,
      "橇": 2600,
      "橐": 2601,
      "橘": 2602,
      "橙": 2603,
      "橛": 2604,
      "橡": 2605,
      "橥": 2606,
      "橫": 2607,
      "橱": 2608,
      "橹": 2609,
      "檀": 2610,
      "檄": 2611,
      "檎": 2612,
      "檐": 2613,
      "檬": 2614,
      "權": 2615,
      "欠": 2616,
      "次": 2617,
      "欢": 2618,
      "欣": 2619,
      "欤": 2620,
      "欧": 2621,
      "欲": 2622,
      "欸": 2623,
      "欹": 2624,
      "欺": 2625,
      "款": 2626,
      "歃": 2627,
      "歇": 2628,
      "歉": 2629,
      "歌": 2630,
      "歡": 2631,
      "止": 2632,
      "正": 2633,
      "此": 2634,
      "步": 2635,
      "武": 2636,
      "歧": 2637,
      "歪": 2638,
      "歲": 2639,
      "歹": 2640,
      "死": 2641,
      "歼": 2642,
      "殁": 2643,
      "殂": 2644,
      "殃": 2645,
      "殄": 2646,
      "殆": 2647,
      "殇": 2648,
      "殉": 2649,
      "殊": 2650,
      "残": 2651,
      "殍": 2652,
      "殒": 2653,
      "殓": 2654,
      "殖": 2655,
      "殚": 2656,
      "殡": 2657,
      "殴": 2658,
      "段": 2659,
      "殷": 2660,
      "殿": 2661,
      "毁": 2662,
      "毅": 2663,
      "毋": 2664,
      "母": 2665,
      "毎": 2666,
      "每": 2667,
      "毒": 2668,
      "毓": 2669,
      "比": 2670,
      "毕": 2671,
      "毗": 2672,
      "毙": 2673,
      "毛": 2674,
      "毡": 2675,
      "毫": 2676,
      "毯": 2677,
      "毵": 2678,
      "氅": 2679,
      "氏": 2680,
      "氐": 2681,
      "民": 2682,
      "氓": 2683,
      "气": 2684,
      "氛": 2685,
      "氤": 2686,
      "氲": 2687,
      "氳": 2688,
      "水": 2689,
      "永": 2690,
      "氺": 2691,
      "汁": 2692,
      "求": 2693,
      "汄": 2694,
      "汆": 2695,
      "汇": 2696,
      "汉": 2697,
      "汊": 2698,
      "汐": 2699,
      "汕": 2700,
      "汗": 2701,
      "汛": 2702,
      "汝": 2703,
      "汞": 2704,
      "江": 2705,
      "池": 2706,
      "污": 2707,
      "汤": 2708,
      "汨": 2709,
      "汩": 2710,
      "汪": 2711,
      "汰": 2712,
      "汴": 2713,
      "汸": 2714,
      "汹": 2715,
      "汽": 2716,
      "汾": 2717,
      "沁": 2718,
      "沂": 2719,
      "沃": 2720,
      "沅": 2721,
      "沆": 2722,
      "沈": 2723,
      "沉": 2724,
      "沌": 2725,
      "沐": 2726,
      "沓": 2727,
      "沔": 2728,
      "沖": 2729,
      "沙": 2730,
      "沛": 2731,
      "沟": 2732,
      "没": 2733,
      "沥": 2734,
      "沦": 2735,
      "沧": 2736,
      "沪": 2737,
      "沫": 2738,
      "沬": 2739,
      "沮": 2740,
      "沱": 2741,
      "河": 2742,
      "沸": 2743,
      "油": 2744,
      "治": 2745,
      "沼": 2746,
      "沽": 2747,
      "沾": 2748,
      "沿": 2749,
      "泄": 2750,
      "泅": 2751,
      "泉": 2752,
      "泊": 2753,
      "泌": 2754,
      "泓": 2755,
      "法": 2756,
      "泗": 2757,
      "泚": 2758,
      "泛": 2759,
      "泞": 2760,
      "泠": 2761,
      "泡": 2762,
      "波": 2763,
      "泣": 2764,
      "泥": 2765,
      "注": 2766,
      "泪": 2767,
      "泫": 2768,
      "泮": 2769,
      "泯": 2770,
      "泰": 2771,
      "泳": 2772,
      "泸": 2773,
      "泻": 2774,
      "泼": 2775,
      "泽": 2776,
      "泾": 2777,
      "洁": 2778,
      "洋": 2779,
      "洎": 2780,
      "洒": 2781,
      "洗": 2782,
      "洛": 2783,
      "洞": 2784,
      "津": 2785,
      "洪": 2786,
      "洱": 2787,
      "洲": 2788,
      "洵": 2789,
      "活": 2790,
      "洼": 2791,
      "洽": 2792,
      "派": 2793,
      "流": 2794,
      "浃": 2795,
      "浅": 2796,
      "浆": 2797,
      "浇": 2798,
      "浊": 2799,
      "测": 2800,
      "济": 2801,
      "浑": 2802,
      "浒": 2803,
      "浓": 2804,
      "浔": 2805,
      "浙": 2806,
      "浚": 2807,
      "浜": 2808,
      "浞": 2809,
      "浡": 2810,
      "浣": 2811,
      "浦": 2812,
      "浩": 2813,
      "浪": 2814,
      "浮": 2815,
      "浴": 2816,
      "海": 2817,
      "浸": 2818,
      "涂": 2819,
      "涅": 2820,
      "消": 2821,
      "涉": 2822,
      "涌": 2823,
      "涎": 2824,
      "涓": 2825,
      "涔": 2826,
      "涕": 2827,
      "涛": 2828,
      "涟": 2829,
      "涡": 2830,
      "涣": 2831,
      "涤": 2832,
      "润": 2833,
      "涧": 2834,
      "涨": 2835,
      "涩": 2836,
      "涮": 2837,
      "涯": 2838,
      "液": 2839,
      "涵": 2840,
      "涸": 2841,
      "涿": 2842,
      "淅": 2843,
      "淆": 2844,
      "淇": 2845,
      "淋": 2846,
      "淌": 2847,
      "淑": 2848,
      "淖": 2849,
      "淘": 2850,
      "淙": 2851,
      "淚": 2852,
      "淝": 2853,
      "淞": 2854,
      "淡": 2855,
      "淤": 2856,
      "淩": 2857,
      "淫": 2858,
      "淬": 2859,
      "淮": 2860,
      "深": 2861,
      "淳": 2862,
      "混": 2863,
      "淹": 2864,
      "添": 2865,
      "淼": 2866,
      "清": 2867,
      "渊": 2868,
      "渌": 2869,
      "渍": 2870,
      "渎": 2871,
      "渐": 2872,
      "渔": 2873,
      "渖": 2874,
      "渗": 2875,
      "渚": 2876,
      "渝": 2877,
      "渟": 2878,
      "渠": 2879,
      "渡": 2880,
      "渣": 2881,
      "渤": 2882,
      "渥": 2883,
      "温": 2884,
      "渭": 2885,
      "港": 2886,
      "渲": 2887,
      "渴": 2888,
      "游": 2889,
      "渺": 2890,
      "渾": 2891,
      "湃": 2892,
      "湍": 2893,
      "湎": 2894,
      "湖": 2895,
      "湘": 2896,
      "湛": 2897,
      "湮": 2898,
      "湲": 2899,
      "湾": 2900,
      "湿": 2901,
      "溃": 2902,
      "溅": 2903,
      "溆": 2904,
      "溉": 2905,
      "源": 2906,
      "準": 2907,
      "溜": 2908,
      "溟": 2909,
      "溢": 2910,
      "溥": 2911,
      "溧": 2912,
      "溪": 2913,
      "溯": 2914,
      "溴": 2915,
      "溶": 2916,
      "溷": 2917,
      "溺": 2918,
      "滁": 2919,
      "滂": 2920,
      "滇": 2921,
      "滋": 2922,
      "滑": 2923,
      "滓": 2924,
      "滔": 2925,
      "滕": 2926,
      "滚": 2927,
      "滞": 2928,
      "满": 2929,
      "滥": 2930,
      "滦": 2931,
      "滨": 2932,
      "滩": 2933,
      "滴": 2934,
      "漂": 2935,
      "漆": 2936,
      "漉": 2937,
      "漏": 2938,
      "漓": 2939,
      "演": 2940,
      "漕": 2941,
      "漠": 2942,
      "漤": 2943,
      "漩": 2944,
      "漪": 2945,
      "漫": 2946,
      "漱": 2947,
      "漳": 2948,
      "漾": 2949,
      "潇": 2950,
      "潍": 2951,
      "潘": 2952,
      "潜": 2953,
      "潞": 2954,
      "潢": 2955,
      "潦": 2956,
      "潭": 2957,
      "潮": 2958,
      "潰": 2959,
      "潸": 2960,
      "潺": 2961,
      "潼": 2962,
      "澄": 2963,
      "澈": 2964,
      "澍": 2965,
      "澎": 2966,
      "澜": 2967,
      "澡": 2968,
      "澳": 2969,
      "澶": 2970,
      "澹": 2971,
      "激": 2972,
      "濂": 2973,
      "濒": 2974,
      "濛": 2975,
      "濟": 2976,
      "濠": 2977,
      "濡": 2978,
      "濩": 2979,
      "濬": 2980,
      "濯": 2981,
      "瀑": 2982,
      "瀚": 2983,
      "瀛": 2984,
      "瀠": 2985,
      "瀣": 2986,
      "灌": 2987,
      "灏": 2988,
      "灘": 2989,
      "火": 2990,
      "灭": 2991,
      "灯": 2992,
      "灰": 2993,
      "灵": 2994,
      "灶": 2995,
      "灸": 2996,
      "灼": 2997,
      "災": 2998,
      "灾": 2999,
      "灿": 3000,
      "炀": 3001,
      "炁": 3002,
      "炅": 3003,
      "炆": 3004,
      "炉": 3005,
      "炊": 3006,
      "炎": 3007,
      "炒": 3008,
      "炕": 3009,
      "炖": 3010,
      "炙": 3011,
      "炫": 3012,
      "炬": 3013,
      "炭": 3014,
      "炮": 3015,
      "炯": 3016,
      "炳": 3017,
      "炷": 3018,
      "炸": 3019,
      "点": 3020,
      "炼": 3021,
      "炽": 3022,
      "烁": 3023,
      "烂": 3024,
      "烈": 3025,
      "烘": 3026,
      "烙": 3027,
      "烛": 3028,
      "烜": 3029,
      "烟": 3030,
      "烤": 3031,
      "烦": 3032,
      "烧": 3033,
      "烨": 3034,
      "烩": 3035,
      "烫": 3036,
      "烬": 3037,
      "热": 3038,
      "烹": 3039,
      "烽": 3040,
      "焉": 3041,
      "焊": 3042,
      "焐": 3043,
      "焕": 3044,
      "焘": 3045,
      "焙": 3046,
      "焚": 3047,
      "焜": 3048,
      "焦": 3049,
      "焰": 3050,
      "然": 3051,
      "煅": 3052,
      "煊": 3053,
      "煌": 3054,
      "煎": 3055,
      "煜": 3056,
      "煞": 3057,
      "煤": 3058,
      "煦": 3059,
      "照": 3060,
      "煨": 3061,
      "煮": 3062,
      "煽": 3063,
      "熄": 3064,
      "熊": 3065,
      "熏": 3066,
      "熔": 3067,
      "熙": 3068,
      "熟": 3069,
      "熠": 3070,
      "熨": 3071,
      "熬": 3072,
      "熹": 3073,
      "燃": 3074,
      "燈": 3075,
      "燊": 3076,
      "燎": 3077,
      "燕": 3078,
      "燥": 3079,
      "燧": 3080,
      "燮": 3081,
      "爆": 3082,
      "爨": 3083,
      "爪": 3084,
      "爬": 3085,
      "爭": 3086,
      "爰": 3087,
      "爱": 3088,
      "爵": 3089,
      "父": 3090,
      "爷": 3091,
      "爸": 3092,
      "爹": 3093,
      "爻": 3094,
      "爽": 3095,
      "爿": 3096,
      "牀": 3097,
      "片": 3098,
      "版": 3099,
      "牌": 3100,
      "牒": 3101,
      "牖": 3102,
      "牙": 3103,
      "牛": 3104,
      "牟": 3105,
      "牡": 3106,
      "牢": 3107,
      "牧": 3108,
      "物": 3109,
      "牯": 3110,
      "牲": 3111,
      "牴": 3112,
      "牵": 3113,
      "特": 3114,
      "牺": 3115,
      "犀": 3116,
      "犁": 3117,
      "犄": 3118,
      "犊": 3119,
      "犍": 3120,
      "犒": 3121,
      "犟": 3122,
      "犬": 3123,
      "犯": 3124,
      "犴": 3125,
      "犵": 3126,
      "状": 3127,
      "犷": 3128,
      "犹": 3129,
      "狂": 3130,
      "狄": 3131,
      "狈": 3132,
      "狍": 3133,
      "狐": 3134,
      "狗": 3135,
      "狙": 3136,
      "狞": 3137,
      "狠": 3138,
      "狡": 3139,
      "独": 3140,
      "狭": 3141,
      "狮": 3142,
      "狯": 3143,
      "狰": 3144,
      "狱": 3145,
      "狲": 3146,
      "狳": 3147,
      "狴": 3148,
      "狷": 3149,
      "狸": 3150,
      "狺": 3151,
      "狼": 3152,
      "猄": 3153,
      "猎": 3154,
      "猕": 3155,
      "猖": 3156,
      "猗": 3157,
      "猛": 3158,
      "猜": 3159,
      "猝": 3160,
      "猡": 3161,
      "猢": 3162,
      "猥": 3163,
      "猩": 3164,
      "猪": 3165,
      "猫": 3166,
      "猬": 3167,
      "献": 3168,
      "猱": 3169,
      "猴": 3170,
      "猷": 3171,
      "猾": 3172,
      "猿": 3173,
      "獍": 3174,
      "獏": 3175,
      "獐": 3176,
      "獒": 3177,
      "獗": 3178,
      "獠": 3179,
      "獬": 3180,
      "獾": 3181,
      "玄": 3182,
      "率": 3183,
      "玉": 3184,
      "王": 3185,
      "玎": 3186,
      "玑": 3187,
      "玛": 3188,
      "玟": 3189,
      "玠": 3190,
      "玡": 3191,
      "玩": 3192,
      "玫": 3193,
      "环": 3194,
      "现": 3195,
      "玲": 3196,
      "玳": 3197,
      "玷": 3198,
      "玺": 3199,
      "玻": 3200,
      "珀": 3201,
      "珂": 3202,
      "珅": 3203,
      "珈": 3204,
      "珊": 3205,
      "珍": 3206,
      "珑": 3207,
      "珓": 3208,
      "珙": 3209,
      "珠": 3210,
      "珣": 3211,
      "珩": 3212,
      "珪": 3213,
      "班": 3214,
      "珮": 3215,
      "珰": 3216,
      "珲": 3217,
      "琀": 3218,
      "球": 3219,
      "琅": 3220,
      "理": 3221,
      "琇": 3222,
      "琉": 3223,
      "琏": 3224,
      "琐": 3225,
      "琢": 3226,
      "琤": 3227,
      "琥": 3228,
      "琦": 3229,
      "琪": 3230,
      "琮": 3231,
      "琰": 3232,
      "琳": 3233,
      "琴": 3234,
      "琵": 3235,
      "琶": 3236,
      "琼": 3237,
      "瑁": 3238,
      "瑕": 3239,
      "瑗": 3240,
      "瑙": 3241,
      "瑚": 3242,
      "瑛": 3243,
      "瑜": 3244,
      "瑞": 3245,
      "瑟": 3246,
      "瑮": 3247,
      "瑯": 3248,
      "瑰": 3249,
      "瑶": 3250,
      "瑷": 3251,
      "璀": 3252,
      "璃": 3253,
      "璇": 3254,
      "璈": 3255,
      "璉": 3256,
      "璋": 3257,
      "璜": 3258,
      "璞": 3259,
      "璟": 3260,
      "璠": 3261,
      "璧": 3262,
      "璨": 3263,
      "瓒": 3264,
      "瓖": 3265,
      "瓜": 3266,
      "瓢": 3267,
      "瓣": 3268,
      "瓤": 3269,
      "瓦": 3270,
      "瓮": 3271,
      "瓯": 3272,
      "瓶": 3273,
      "瓷": 3274,
      "甄": 3275,
      "甑": 3276,
      "甘": 3277,
      "甚": 3278,
      "甜": 3279,
      "生": 3280,
      "甥": 3281,
      "用": 3282,
      "甩": 3283,
      "甫": 3284,
      "甬": 3285,
      "甭": 3286,
      "田": 3287,
      "由": 3288,
      "甲": 3289,
      "申": 3290,
      "甴": 3291,
      "电": 3292,
      "甶": 3293,
      "男": 3294,
      "甸": 3295,
      "町": 3296,
      "画": 3297,
      "畀": 3298,
      "畅": 3299,
      "畋": 3300,
      "界": 3301,
      "畏": 3302,
      "畔": 3303,
      "留": 3304,
      "畚": 3305,
      "畛": 3306,
      "畜": 3307,
      "畠": 3308,
      "畤": 3309,
      "略": 3310,
      "畦": 3311,
      "番": 3312,
      "異": 3313,
      "畲": 3314,
      "畴": 3315,
      "畸": 3316,
      "畿": 3317,
      "疆": 3318,
      "疏": 3319,
      "疑": 3320,
      "疔": 3321,
      "疗": 3322,
      "疙": 3323,
      "疚": 3324,
      "疟": 3325,
      "疤": 3326,
      "疫": 3327,
      "疮": 3328,
      "疯": 3329,
      "疲": 3330,
      "疴": 3331,
      "疵": 3332,
      "疸": 3333,
      "疹": 3334,
      "疼": 3335,
      "疽": 3336,
      "疾": 3337,
      "病": 3338,
      "症": 3339,
      "痈": 3340,
      "痉": 3341,
      "痊": 3342,
      "痍": 3343,
      "痒": 3344,
      "痕": 3345,
      "痖": 3346,
      "痘": 3347,
      "痛": 3348,
      "痞": 3349,
      "痢": 3350,
      "痣": 3351,
      "痤": 3352,
      "痨": 3353,
      "痪": 3354,
      "痫": 3355,
      "痰": 3356,
      "痴": 3357,
      "痹": 3358,
      "痼": 3359,
      "痾": 3360,
      "瘀": 3361,
      "瘁": 3362,
      "瘅": 3363,
      "瘈": 3364,
      "瘐": 3365,
      "瘟": 3366,
      "瘠": 3367,
      "瘢": 3368,
      "瘤": 3369,
      "瘦": 3370,
      "瘩": 3371,
      "瘪": 3372,
      "瘫": 3373,
      "瘳": 3374,
      "瘴": 3375,
      "瘸": 3376,
      "瘼": 3377,
      "瘾": 3378,
      "癌": 3379,
      "癒": 3380,
      "癖": 3381,
      "癞": 3382,
      "癫": 3383,
      "癮": 3384,
      "癯": 3385,
      "癱": 3386,
      "癸": 3387,
      "登": 3388,
      "白": 3389,
      "百": 3390,
      "皁": 3391,
      "皂": 3392,
      "的": 3393,
      "皆": 3394,
      "皇": 3395,
      "皈": 3396,
      "皋": 3397,
      "皎": 3398,
      "皑": 3399,
      "皓": 3400,
      "皖": 3401,
      "皙": 3402,
      "皝": 3403,
      "皮": 3404,
      "皱": 3405,
      "皴": 3406,
      "皿": 3407,
      "盂": 3408,
      "盅": 3409,
      "盆": 3410,
      "盈": 3411,
      "益": 3412,
      "盎": 3413,
      "盏": 3414,
      "盐": 3415,
      "监": 3416,
      "盒": 3417,
      "盔": 3418,
      "盖": 3419,
      "盗": 3420,
      "盘": 3421,
      "盛": 3422,
      "盟": 3423,
      "盥": 3424,
      "盪": 3425,
      "目": 3426,
      "盯": 3427,
      "盲": 3428,
      "直": 3429,
      "相": 3430,
      "盹": 3431,
      "盼": 3432,
      "盾": 3433,
      "省": 3434,
      "眄": 3435,
      "眇": 3436,
      "眈": 3437,
      "眉": 3438,
      "看": 3439,
      "真": 3440,
      "眠": 3441,
      "眦": 3442,
      "眨": 3443,
      "眩": 3444,
      "眬": 3445,
      "眯": 3446,
      "眶": 3447,
      "眷": 3448,
      "眸": 3449,
      "眺": 3450,
      "眼": 3451,
      "着": 3452,
      "睁": 3453,
      "睇": 3454,
      "睐": 3455,
      "睑": 3456,
      "睛": 3457,
      "睡": 3458,
      "睢": 3459,
      "督": 3460,
      "睥": 3461,
      "睦": 3462,
      "睨": 3463,
      "睫": 3464,
      "睬": 3465,
      "睱": 3466,
      "睸": 3467,
      "睹": 3468,
      "睺": 3469,
      "睽": 3470,
      "睾": 3471,
      "睿": 3472,
      "瞄": 3473,
      "瞅": 3474,
      "瞋": 3475,
      "瞌": 3476,
      "瞎": 3477,
      "瞑": 3478,
      "瞒": 3479,
      "瞟": 3480,
      "瞠": 3481,
      "瞥": 3482,
      "瞧": 3483,
      "瞩": 3484,
      "瞪": 3485,
      "瞬": 3486,
      "瞭": 3487,
      "瞰": 3488,
      "瞳": 3489,
      "瞻": 3490,
      "瞽": 3491,
      "瞿": 3492,
      "矇": 3493,
      "矍": 3494,
      "矛": 3495,
      "矜": 3496,
      "矢": 3497,
      "矣": 3498,
      "知": 3499,
      "矩": 3500,
      "矫": 3501,
      "短": 3502,
      "矮": 3503,
      "石": 3504,
      "矶": 3505,
      "矾": 3506,
      "矿": 3507,
      "码": 3508,
      "砂": 3509,
      "砌": 3510,
      "砍": 3511,
      "砑": 3512,
      "砒": 3513,
      "研": 3514,
      "砖": 3515,
      "砚": 3516,
      "砟": 3517,
      "砥": 3518,
      "砧": 3519,
      "砭": 3520,
      "砰": 3521,
      "破": 3522,
      "砸": 3523,
      "砺": 3524,
      "砻": 3525,
      "砾": 3526,
      "础": 3527,
      "硃": 3528,
      "硊": 3529,
      "硎": 3530,
      "硒": 3531,
      "硕": 3532,
      "硝": 3533,
      "硫": 3534,
      "硬": 3535,
      "确": 3536,
      "碇": 3537,
      "碉": 3538,
      "碌": 3539,
      "碍": 3540,
      "碎": 3541,
      "碑": 3542,
      "碗": 3543,
      "碜": 3544,
      "碟": 3545,
      "碣": 3546,
      "碧": 3547,
      "碰": 3548,
      "碲": 3549,
      "碴": 3550,
      "碾": 3551,
      "磁": 3552,
      "磅": 3553,
      "磊": 3554,
      "磋": 3555,
      "磐": 3556,
      "磔": 3557,
      "磕": 3558,
      "磨": 3559,
      "磬": 3560,
      "磷": 3561,
      "磺": 3562,
      "磻": 3563,
      "礁": 3564,
      "礴": 3565,
      "示": 3566,
      "礼": 3567,
      "礽": 3568,
      "社": 3569,
      "祀": 3570,
      "祁": 3571,
      "祅": 3572,
      "祈": 3573,
      "祉": 3574,
      "祐": 3575,
      "祖": 3576,
      "祗": 3577,
      "祚": 3578,
      "祛": 3579,
      "祜": 3580,
      "祝": 3581,
      "神": 3582,
      "祟": 3583,
      "祠": 3584,
      "祥": 3585,
      "祧": 3586,
      "票": 3587,
      "祭": 3588,
      "祯": 3589,
      "祷": 3590,
      "祸": 3591,
      "禀": 3592,
      "禁": 3593,
      "禄": 3594,
      "禅": 3595,
      "福": 3596,
      "禔": 3597,
      "禛": 3598,
      "禧": 3599,
      "禩": 3600,
      "禳": 3601,
      "禹": 3602,
      "离": 3603,
      "禽": 3604,
      "禾": 3605,
      "禿": 3606,
      "秀": 3607,
      "私": 3608,
      "秃": 3609,
      "秆": 3610,
      "秉": 3611,
      "秋": 3612,
      "种": 3613,
      "秏": 3614,
      "科": 3615,
      "秒": 3616,
      "秕": 3617,
      "秘": 3618,
      "租": 3619,
      "秣": 3620,
      "秤": 3621,
      "秦": 3622,
      "秧": 3623,
      "秩": 3624,
      "积": 3625,
      "称": 3626,
      "移": 3627,
      "秽": 3628,
      "秾": 3629,
      "稀": 3630,
      "稃": 3631,
      "程": 3632,
      "稍": 3633,
      "税": 3634,
      "稔": 3635,
      "稗": 3636,
      "稚": 3637,
      "稠": 3638,
      "稣": 3639,
      "稳": 3640,
      "稷": 3641,
      "稻": 3642,
      "稼": 3643,
      "稽": 3644,
      "稿": 3645,
      "穆": 3646,
      "穗": 3647,
      "穠": 3648,
      "穴": 3649,
      "究": 3650,
      "穷": 3651,
      "穹": 3652,
      "空": 3653,
      "穿": 3654,
      "突": 3655,
      "窃": 3656,
      "窄": 3657,
      "窈": 3658,
      "窍": 3659,
      "窑": 3660,
      "窒": 3661,
      "窕": 3662,
      "窖": 3663,
      "窗": 3664,
      "窘": 3665,
      "窜": 3666,
      "窝": 3667,
      "窟": 3668,
      "窠": 3669,
      "窣": 3670,
      "窥": 3671,
      "窦": 3672,
      "窬": 3673,
      "窭": 3674,
      "窳": 3675,
      "窸": 3676,
      "窻": 3677,
      "窿": 3678,
      "立": 3679,
      "竒": 3680,
      "竖": 3681,
      "站": 3682,
      "竞": 3683,
      "竟": 3684,
      "章": 3685,
      "竣": 3686,
      "童": 3687,
      "竦": 3688,
      "竭": 3689,
      "端": 3690,
      "竹": 3691,
      "竺": 3692,
      "竽": 3693,
      "竿": 3694,
      "笃": 3695,
      "笄": 3696,
      "笆": 3697,
      "笈": 3698,
      "笋": 3699,
      "笏": 3700,
      "笑": 3701,
      "笔": 3702,
      "笙": 3703,
      "笛": 3704,
      "笞": 3705,
      "笠": 3706,
      "笥": 3707,
      "符": 3708,
      "笨": 3709,
      "笫": 3710,
      "第": 3711,
      "笮": 3712,
      "笳": 3713,
      "笺": 3714,
      "笼": 3715,
      "筅": 3716,
      "等": 3717,
      "筋": 3718,
      "筌": 3719,
      "筏": 3720,
      "筐": 3721,
      "筑": 3722,
      "筒": 3723,
      "答": 3724,
      "策": 3725,
      "筛": 3726,
      "筝": 3727,
      "筠": 3728,
      "筮": 3729,
      "筲": 3730,
      "筵": 3731,
      "筷": 3732,
      "筹": 3733,
      "签": 3734,
      "简": 3735,
      "箍": 3736,
      "箓": 3737,
      "箕": 3738,
      "算": 3739,
      "箜": 3740,
      "箝": 3741,
      "管": 3742,
      "箧": 3743,
      "箩": 3744,
      "箪": 3745,
      "箫": 3746,
      "箬": 3747,
      "箭": 3748,
      "箱": 3749,
      "箴": 3750,
      "箸": 3751,
      "篁": 3752,
      "篆": 3753,
      "篇": 3754,
      "篌": 3755,
      "篑": 3756,
      "篓": 3757,
      "篙": 3758,
      "篡": 3759,
      "篥": 3760,
      "篦": 3761,
      "篮": 3762,
      "篱": 3763,
      "篷": 3764,
      "篼": 3765,
      "篾": 3766,
      "簇": 3767,
      "簌": 3768,
      "簕": 3769,
      "簦": 3770,
      "簧": 3771,
      "簪": 3772,
      "簸": 3773,
      "簿": 3774,
      "籁": 3775,
      "籍": 3776,
      "籣": 3777,
      "籩": 3778,
      "米": 3779,
      "籴": 3780,
      "类": 3781,
      "粉": 3782,
      "粒": 3783,
      "粗": 3784,
      "粘": 3785,
      "粝": 3786,
      "粟": 3787,
      "粤": 3788,
      "粥": 3789,
      "粪": 3790,
      "粮": 3791,
      "粱": 3792,
      "粲": 3793,
      "粳": 3794,
      "粹": 3795,
      "粽": 3796,
      "精": 3797,
      "糅": 3798,
      "糊": 3799,
      "糕": 3800,
      "糖": 3801,
      "糙": 3802,
      "糜": 3803,
      "糟": 3804,
      "糠": 3805,
      "糯": 3806,
      "系": 3807,
      "約": 3808,
      "紊": 3809,
      "素": 3810,
      "索": 3811,
      "紧": 3812,
      "紫": 3813,
      "累": 3814,
      "細": 3815,
      "絮": 3816,
      "綜": 3817,
      "綦": 3818,
      "網": 3819,
      "緒": 3820,
      "緙": 3821,
      "締": 3822,
      "縠": 3823,
      "縣": 3824,
      "縻": 3825,
      "繁": 3826,
      "繇": 3827,
      "纂": 3828,
      "纓": 3829,
      "纔": 3830,
      "纖": 3831,
      "纛": 3832,
      "纟": 3833,
      "纠": 3834,
      "纡": 3835,
      "红": 3836,
      "纣": 3837,
      "纤": 3838,
      "纥": 3839,
      "约": 3840,
      "级": 3841,
      "纨": 3842,
      "纪": 3843,
      "纬": 3844,
      "纭": 3845,
      "纯": 3846,
      "纱": 3847,
      "纲": 3848,
      "纳": 3849,
      "纵": 3850,
      "纶": 3851,
      "纷": 3852,
      "纸": 3853,
      "纹": 3854,
      "纺": 3855,
      "纽": 3856,
      "线": 3857,
      "绁": 3858,
      "练": 3859,
      "组": 3860,
      "绅": 3861,
      "细": 3862,
      "织": 3863,
      "终": 3864,
      "绉": 3865,
      "绊": 3866,
      "绌": 3867,
      "绍": 3868,
      "绎": 3869,
      "经": 3870,
      "绐": 3871,
      "绑": 3872,
      "绒": 3873,
      "结": 3874,
      "绔": 3875,
      "绕": 3876,
      "绘": 3877,
      "给": 3878,
      "绚": 3879,
      "绛": 3880,
      "络": 3881,
      "绝": 3882,
      "绞": 3883,
      "统": 3884,
      "绡": 3885,
      "绢": 3886,
      "绣": 3887,
      "绥": 3888,
      "绦": 3889,
      "继": 3890,
      "绩": 3891,
      "绪": 3892,
      "绫": 3893,
      "续": 3894,
      "绮": 3895,
      "绯": 3896,
      "绰": 3897,
      "绳": 3898,
      "维": 3899,
      "绵": 3900,
      "绷": 3901,
      "绸": 3902,
      "绺": 3903,
      "绻": 3904,
      "综": 3905,
      "绽": 3906,
      "绾": 3907,
      "绿": 3908,
      "缀": 3909,
      "缁": 3910,
      "缄": 3911,
      "缅": 3912,
      "缆": 3913,
      "缈": 3914,
      "缉": 3915,
      "缎": 3916,
      "缒": 3917,
      "缓": 3918,
      "缔": 3919,
      "缕": 3920,
      "编": 3921,
      "缘": 3922,
      "缙": 3923,
      "缚": 3924,
      "缛": 3925,
      "缜": 3926,
      "缝": 3927,
      "缟": 3928,
      "缠": 3929,
      "缡": 3930,
      "缢": 3931,
      "缣": 3932,
      "缤": 3933,
      "缥": 3934,
      "缦": 3935,
      "缧": 3936,
      "缨": 3937,
      "缩": 3938,
      "缪": 3939,
      "缫": 3940,
      "缭": 3941,
      "缮": 3942,
      "缰": 3943,
      "缱": 3944,
      "缴": 3945,
      "缶": 3946,
      "缸": 3947,
      "缺": 3948,
      "缽": 3949,
      "罄": 3950,
      "罍": 3951,
      "罐": 3952,
      "网": 3953,
      "罔": 3954,
      "罕": 3955,
      "罗": 3956,
      "罘": 3957,
      "罚": 3958,
      "罡": 3959,
      "罢": 3960,
      "罣": 3961,
      "罩": 3962,
      "罪": 3963,
      "置": 3964,
      "罱": 3965,
      "署": 3966,
      "罴": 3967,
      "罹": 3968,
      "罾": 3969,
      "羁": 3970,
      "羊": 3971,
      "羌": 3972,
      "美": 3973,
      "羔": 3974,
      "羚": 3975,
      "羝": 3976,
      "羞": 3977,
      "羡": 3978,
      "群": 3979,
      "羯": 3980,
      "羲": 3981,
      "羸": 3982,
      "羹": 3983,
      "羽": 3984,
      "翁": 3985,
      "翅": 3986,
      "翊": 3987,
      "翌": 3988,
      "翎": 3989,
      "翔": 3990,
      "翕": 3991,
      "翘": 3992,
      "翟": 3993,
      "翠": 3994,
      "翡": 3995,
      "翦": 3996,
      "翩": 3997,
      "翰": 3998,
      "翱": 3999,
      "翳": 4000,
      "翻": 4001,
      "翼": 4002,
      "耀": 4003,
      "老": 4004,
      "考": 4005,
      "耄": 4006,
      "者": 4007,
      "耆": 4008,
      "耋": 4009,
      "而": 4010,
      "耍": 4011,
      "耐": 4012,
      "耕": 4013,
      "耗": 4014,
      "耘": 4015,
      "耙": 4016,
      "耦": 4017,
      "耨": 4018,
      "耳": 4019,
      "耶": 4020,
      "耸": 4021,
      "耻": 4022,
      "耽": 4023,
      "耿": 4024,
      "聂": 4025,
      "聆": 4026,
      "聊": 4027,
      "聋": 4028,
      "职": 4029,
      "聒": 4030,
      "联": 4031,
      "聘": 4032,
      "聚": 4033,
      "聩": 4034,
      "聪": 4035,
      "聯": 4036,
      "聰": 4037,
      "聱": 4038,
      "職": 4039,
      "聿": 4040,
      "肀": 4041,
      "肃": 4042,
      "肄": 4043,
      "肆": 4044,
      "肇": 4045,
      "肉": 4046,
      "肋": 4047,
      "肌": 4048,
      "肓": 4049,
      "肖": 4050,
      "肘": 4051,
      "肚": 4052,
      "肛": 4053,
      "肝": 4054,
      "肠": 4055,
      "股": 4056,
      "肢": 4057,
      "肤": 4058,
      "肥": 4059,
      "肩": 4060,
      "肫": 4061,
      "肮": 4062,
      "肯": 4063,
      "肱": 4064,
      "育": 4065,
      "肴": 4066,
      "肷": 4067,
      "肺": 4068,
      "肾": 4069,
      "肿": 4070,
      "胀": 4071,
      "胁": 4072,
      "胂": 4073,
      "胃": 4074,
      "胄": 4075,
      "胆": 4076,
      "背": 4077,
      "胎": 4078,
      "胖": 4079,
      "胚": 4080,
      "胛": 4081,
      "胜": 4082,
      "胞": 4083,
      "胡": 4084,
      "胤": 4085,
      "胥": 4086,
      "胦": 4087,
      "胧": 4088,
      "胨": 4089,
      "胪": 4090,
      "胫": 4091,
      "胭": 4092,
      "胯": 4093,
      "胱": 4094,
      "胳": 4095,
      "胴": 4096,
      "胶": 4097,
      "胸": 4098,
      "能": 4099,
      "脂": 4100,
      "脆": 4101,
      "脉": 4102,
      "脊": 4103,
      "脍": 4104,
      "脏": 4105,
      "脐": 4106,
      "脑": 4107,
      "脓": 4108,
      "脔": 4109,
      "脖": 4110,
      "脘": 4111,
      "脚": 4112,
      "脯": 4113,
      "脱": 4114,
      "脲": 4115,
      "脶": 4116,
      "脸": 4117,
      "脾": 4118,
      "腆": 4119,
      "腈": 4120,
      "腊": 4121,
      "腋": 4122,
      "腌": 4123,
      "腐": 4124,
      "腑": 4125,
      "腔": 4126,
      "腕": 4127,
      "腥": 4128,
      "腮": 4129,
      "腰": 4130,
      "腴": 4131,
      "腹": 4132,
      "腻": 4133,
      "腼": 4134,
      "腾": 4135,
      "腿": 4136,
      "膀": 4137,
      "膂": 4138,
      "膊": 4139,
      "膏": 4140,
      "膑": 4141,
      "膘": 4142,
      "膛": 4143,
      "膜": 4144,
      "膝": 4145,
      "膨": 4146,
      "膩": 4147,
      "膳": 4148,
      "膺": 4149,
      "膻": 4150,
      "臀": 4151,
      "臂": 4152,
      "臃": 4153,
      "臆": 4154,
      "臊": 4155,
      "臍": 4156,
      "臏": 4157,
      "臑": 4158,
      "臜": 4159,
      "臝": 4160,
      "臣": 4161,
      "臧": 4162,
      "自": 4163,
      "臬": 4164,
      "臭": 4165,
      "至": 4166,
      "致": 4167,
      "臻": 4168,
      "臼": 4169,
      "臾": 4170,
      "舀": 4171,
      "舁": 4172,
      "舂": 4173,
      "舅": 4174,
      "舆": 4175,
      "與": 4176,
      "舉": 4177,
      "舌": 4178,
      "舍": 4179,
      "舐": 4180,
      "舒": 4181,
      "舔": 4182,
      "舛": 4183,
      "舜": 4184,
      "舞": 4185,
      "舟": 4186,
      "舢": 4187,
      "舨": 4188,
      "航": 4189,
      "舫": 4190,
      "般": 4191,
      "舰": 4192,
      "舱": 4193,
      "舵": 4194,
      "舶": 4195,
      "舷": 4196,
      "舸": 4197,
      "船": 4198,
      "艄": 4199,
      "艇": 4200,
      "艘": 4201,
      "艟": 4202,
      "艨": 4203,
      "艮": 4204,
      "良": 4205,
      "艰": 4206,
      "色": 4207,
      "艳": 4208,
      "艺": 4209,
      "艽": 4210,
      "艾": 4211,
      "艿": 4212,
      "节": 4213,
      "芄": 4214,
      "芊": 4215,
      "芍": 4216,
      "芎": 4217,
      "芒": 4218,
      "芙": 4219,
      "芜": 4220,
      "芝": 4221,
      "芟": 4222,
      "芥": 4223,
      "芦": 4224,
      "芪": 4225,
      "芬": 4226,
      "芭": 4227,
      "芯": 4228,
      "花": 4229,
      "芳": 4230,
      "芷": 4231,
      "芸": 4232,
      "芹": 4233,
      "芽": 4234,
      "苄": 4235,
      "苇": 4236,
      "苌": 4237,
      "苍": 4238,
      "苏": 4239,
      "苑": 4240,
      "苒": 4241,
      "苓": 4242,
      "苔": 4243,
      "苕": 4244,
      "苗": 4245,
      "苛": 4246,
      "苜": 4247,
      "苞": 4248,
      "苟": 4249,
      "苢": 4250,
      "若": 4251,
      "苦": 4252,
      "苫": 4253,
      "英": 4254,
      "苹": 4255,
      "苻": 4256,
      "茁": 4257,
      "茂": 4258,
      "范": 4259,
      "茄": 4260,
      "茅": 4261,
      "茉": 4262,
      "茎": 4263,
      "茕": 4264,
      "茗": 4265,
      "茛": 4266,
      "茜": 4267,
      "茧": 4268,
      "茨": 4269,
      "茫": 4270,
      "茭": 4271,
      "茯": 4272,
      "茱": 4273,
      "茵": 4274,
      "茶": 4275,
      "茸": 4276,
      "茹": 4277,
      "荀": 4278,
      "荃": 4279,
      "荆": 4280,
      "荇": 4281,
      "草": 4282,
      "荊": 4283,
      "荏": 4284,
      "荐": 4285,
      "荑": 4286,
      "荒": 4287,
      "荔": 4288,
      "荚": 4289,
      "荜": 4290,
      "荠": 4291,
      "荡": 4292,
      "荣": 4293,
      "荤": 4294,
      "荥": 4295,
      "荦": 4296,
      "荧": 4297,
      "荪": 4298,
      "荫": 4299,
      "荮": 4300,
      "药": 4301,
      "荷": 4302,
      "荼": 4303,
      "荽": 4304,
      "莅": 4305,
      "莆": 4306,
      "莉": 4307,
      "莎": 4308,
      "莒": 4309,
      "莓": 4310,
      "莘": 4311,
      "莞": 4312,
      "莠": 4313,
      "莫": 4314,
      "莱": 4315,
      "莲": 4316,
      "莳": 4317,
      "获": 4318,
      "莹": 4319,
      "莺": 4320,
      "莼": 4321,
      "莽": 4322,
      "菁": 4323,
      "菅": 4324,
      "菇": 4325,
      "菊": 4326,
      "菌": 4327,
      "菏": 4328,
      "菜": 4329,
      "菠": 4330,
      "菡": 4331,
      "菩": 4332,
      "華": 4333,
      "菱": 4334,
      "菲": 4335,
      "菽": 4336,
      "萃": 4337,
      "萄": 4338,
      "萆": 4339,
      "萌": 4340,
      "萍": 4341,
      "萎": 4342,
      "萏": 4343,
      "萑": 4344,
      "萝": 4345,
      "萣": 4346,
      "萤": 4347,
      "营": 4348,
      "萦": 4349,
      "萧": 4350,
      "萨": 4351,
      "萷": 4352,
      "萼": 4353,
      "落": 4354,
      "葆": 4355,
      "著": 4356,
      "葛": 4357,
      "葡": 4358,
      "董": 4359,
      "葫": 4360,
      "葬": 4361,
      "葭": 4362,
      "葱": 4363,
      "葳": 4364,
      "葵": 4365,
      "葶": 4366,
      "葸": 4367,
      "蒂": 4368,
      "蒋": 4369,
      "蒗": 4370,
      "蒙": 4371,
      "蒜": 4372,
      "蒲": 4373,
      "蒸": 4374,
      "蒹": 4375,
      "蒺": 4376,
      "蒿": 4377,
      "蓄": 4378,
      "蓉": 4379,
      "蓑": 4380,
      "蓓": 4381,
      "蓝": 4382,
      "蓟": 4383,
      "蓦": 4384,
      "蓧": 4385,
      "蓬": 4386,
      "蓰": 4387,
      "蓼": 4388,
      "蔑": 4389,
      "蔓": 4390,
      "蔗": 4391,
      "蔚": 4392,
      "蔡": 4393,
      "蔬": 4394,
      "蔷": 4395,
      "蔺": 4396,
      "蔼": 4397,
      "蔽": 4398,
      "蕃": 4399,
      "蕉": 4400,
      "蕊": 4401,
      "蕖": 4402,
      "蕤": 4403,
      "蕲": 4404,
      "蕴": 4405,
      "蕻": 4406,
      "蕾": 4407,
      "薄": 4408,
      "薅": 4409,
      "薇": 4410,
      "薛": 4411,
      "薨": 4412,
      "薪": 4413,
      "薮": 4414,
      "薯": 4415,
      "薰": 4416,
      "藉": 4417,
      "藏": 4418,
      "藐": 4419,
      "藓": 4420,
      "藕": 4421,
      "藜": 4422,
      "藝": 4423,
      "藤": 4424,
      "藩": 4425,
      "藻": 4426,
      "蘅": 4427,
      "蘑": 4428,
      "蘸": 4429,
      "虎": 4430,
      "虏": 4431,
      "虐": 4432,
      "虑": 4433,
      "虔": 4434,
      "虚": 4435,
      "虞": 4436,
      "虡": 4437,
      "虫": 4438,
      "虬": 4439,
      "虮": 4440,
      "虱": 4441,
      "虹": 4442,
      "虽": 4443,
      "虾": 4444,
      "蚀": 4445,
      "蚁": 4446,
      "蚂": 4447,
      "蚊": 4448,
      "蚋": 4449,
      "蚌": 4450,
      "蚓": 4451,
      "蚕": 4452,
      "蚝": 4453,
      "蚣": 4454,
      "蚤": 4455,
      "蚩": 4456,
      "蚪": 4457,
      "蚯": 4458,
      "蚱": 4459,
      "蛆": 4460,
      "蛇": 4461,
      "蛊": 4462,
      "蛋": 4463,
      "蛎": 4464,
      "蛔": 4465,
      "蛙": 4466,
      "蛛": 4467,
      "蛟": 4468,
      "蛤": 4469,
      "蛩": 4470,
      "蛭": 4471,
      "蛮": 4472,
      "蛰": 4473,
      "蛾": 4474,
      "蜀": 4475,
      "蜂": 4476,
      "蜃": 4477,
      "蜇": 4478,
      "蜈": 4479,
      "蜍": 4480,
      "蜒": 4481,
      "蜓": 4482,
      "蜗": 4483,
      "蜘": 4484,
      "蜚": 4485,
      "蜜": 4486,
      "蜞": 4487,
      "蜡": 4488,
      "蜢": 4489,
      "蜥": 4490,
      "蜩": 4491,
      "蜮": 4492,
      "蜴": 4493,
      "蜷": 4494,
      "蜻": 4495,
      "蜾": 4496,
      "蜿": 4497,
      "蝇": 4498,
      "蝉": 4499,
      "蝌": 4500,
      "蝎": 4501,
      "蝗": 4502,
      "蝙": 4503,
      "蝠": 4504,
      "蝪": 4505,
      "蝮": 4506,
      "蝴": 4507,
      "蝶": 4508,
      "蝼": 4509,
      "螂": 4510,
      "螃": 4511,
      "螅": 4512,
      "融": 4513,
      "螓": 4514,
      "螟": 4515,
      "螫": 4516,
      "螯": 4517,
      "螳": 4518,
      "螺": 4519,
      "蟀": 4520,
      "蟆": 4521,
      "蟋": 4522,
      "蟒": 4523,
      "蟠": 4524,
      "蟹": 4525,
      "蟾": 4526,
      "蠕": 4527,
      "蠖": 4528,
      "蠡": 4529,
      "蠢": 4530,
      "蠲": 4531,
      "血": 4532,
      "衅": 4533,
      "行": 4534,
      "衍": 4535,
      "衔": 4536,
      "街": 4537,
      "衙": 4538,
      "衛": 4539,
      "衡": 4540,
      "衢": 4541,
      "衣": 4542,
      "补": 4543,
      "表": 4544,
      "衫": 4545,
      "衬": 4546,
      "衮": 4547,
      "衰": 4548,
      "衲": 4549,
      "衷": 4550,
      "衽": 4551,
      "衾": 4552,
      "衿": 4553,
      "袁": 4554,
      "袂": 4555,
      "袄": 4556,
      "袅": 4557,
      "袈": 4558,
      "袋": 4559,
      "袍": 4560,
      "袒": 4561,
      "袖": 4562,
      "袜": 4563,
      "袢": 4564,
      "袤": 4565,
      "被": 4566,
      "袭": 4567,
      "袱": 4568,
      "袴": 4569,
      "袷": 4570,
      "袼": 4571,
      "袿": 4572,
      "裁": 4573,
      "裂": 4574,
      "装": 4575,
      "裆": 4576,
      "裉": 4577,
      "裏": 4578,
      "裔": 4579,
      "裕": 4580,
      "裘": 4581,
      "裙": 4582,
      "裟": 4583,
      "裣": 4584,
      "裤": 4585,
      "裨": 4586,
      "裰": 4587,
      "裱": 4588,
      "裳": 4589,
      "裴": 4590,
      "裸": 4591,
      "裹": 4592,
      "裾": 4593,
      "褂": 4594,
      "褆": 4595,
      "褊": 4596,
      "褎": 4597,
      "褐": 4598,
      "褒": 4599,
      "褓": 4600,
      "褚": 4601,
      "褛": 4602,
      "褡": 4603,
      "褥": 4604,
      "褪": 4605,
      "褴": 4606,
      "褶": 4607,
      "襁": 4608,
      "襄": 4609,
      "襟": 4610,
      "襤": 4611,
      "襬": 4612,
      "西": 4613,
      "要": 4614,
      "覃": 4615,
      "覆": 4616,
      "見": 4617,
      "覦": 4618,
      "见": 4619,
      "观": 4620,
      "规": 4621,
      "觅": 4622,
      "视": 4623,
      "览": 4624,
      "觉": 4625,
      "觊": 4626,
      "觌": 4627,
      "觎": 4628,
      "觏": 4629,
      "觐": 4630,
      "觑": 4631,
      "角": 4632,
      "觔": 4633,
      "觚": 4634,
      "觜": 4635,
      "觞": 4636,
      "解": 4637,
      "觥": 4638,
      "触": 4639,
      "言": 4640,
      "訇": 4641,
      "詈": 4642,
      "詹": 4643,
      "誉": 4644,
      "誓": 4645,
      "警": 4646,
      "譬": 4647,
      "计": 4648,
      "订": 4649,
      "讣": 4650,
      "认": 4651,
      "讥": 4652,
      "讦": 4653,
      "讧": 4654,
      "讨": 4655,
      "让": 4656,
      "讪": 4657,
      "讫": 4658,
      "训": 4659,
      "议": 4660,
      "讯": 4661,
      "记": 4662,
      "讲": 4663,
      "讳": 4664,
      "讴": 4665,
      "讵": 4666,
      "讶": 4667,
      "讷": 4668,
      "许": 4669,
      "讹": 4670,
      "论": 4671,
      "讼": 4672,
      "讽": 4673,
      "设": 4674,
      "访": 4675,
      "诀": 4676,
      "证": 4677,
      "诂": 4678,
      "诃": 4679,
      "评": 4680,
      "诅": 4681,
      "识": 4682,
      "诈": 4683,
      "诉": 4684,
      "诊": 4685,
      "诋": 4686,
      "诌": 4687,
      "词": 4688,
      "诏": 4689,
      "译": 4690,
      "诓": 4691,
      "诔": 4692,
      "试": 4693,
      "诗": 4694,
      "诘": 4695,
      "诙": 4696,
      "诚": 4697,
      "诛": 4698,
      "话": 4699,
      "诞": 4700,
      "诡": 4701,
      "询": 4702,
      "诣": 4703,
      "诤": 4704,
      "该": 4705,
      "详": 4706,
      "诧": 4707,
      "诨": 4708,
      "诫": 4709,
      "诬": 4710,
      "语": 4711,
      "诮": 4712,
      "误": 4713,
      "诰": 4714,
      "诱": 4715,
      "诲": 4716,
      "诳": 4717,
      "说": 4718,
      "诵": 4719,
      "请": 4720,
      "诸": 4721,
      "诺": 4722,
      "读": 4723,
      "诼": 4724,
      "诽": 4725,
      "课": 4726,
      "诿": 4727,
      "谀": 4728,
      "谁": 4729,
      "调": 4730,
      "谄": 4731,
      "谅": 4732,
      "谆": 4733,
      "谈": 4734,
      "谊": 4735,
      "谋": 4736,
      "谍": 4737,
      "谎": 4738,
      "谏": 4739,
      "谐": 4740,
      "谑": 4741,
      "谒": 4742,
      "谓": 4743,
      "谕": 4744,
      "谖": 4745,
      "谗": 4746,
      "谘": 4747,
      "谙": 4748,
      "谚": 4749,
      "谛": 4750,
      "谜": 4751,
      "谢": 4752,
      "谣": 4753,
      "谤": 4754,
      "谥": 4755,
      "谦": 4756,
      "谧": 4757,
      "谨": 4758,
      "谩": 4759,
      "谪": 4760,
      "谬": 4761,
      "谭": 4762,
      "谮": 4763,
      "谱": 4764,
      "谲": 4765,
      "谴": 4766,
      "谶": 4767,
      "谷": 4768,
      "谿": 4769,
      "豁": 4770,
      "豆": 4771,
      "豉": 4772,
      "豌": 4773,
      "豕": 4774,
      "象": 4775,
      "豢": 4776,
      "豪": 4777,
      "豫": 4778,
      "豳": 4779,
      "豸": 4780,
      "豹": 4781,
      "豺": 4782,
      "貂": 4783,
      "貉": 4784,
      "貌": 4785,
      "貧": 4786,
      "貽": 4787,
      "賍": 4788,
      "賬": 4789,
      "賺": 4790,
      "贈": 4791,
      "贝": 4792,
      "贞": 4793,
      "负": 4794,
      "贡": 4795,
      "财": 4796,
      "责": 4797,
      "贤": 4798,
      "败": 4799,
      "账": 4800,
      "货": 4801,
      "质": 4802,
      "贩": 4803,
      "贪": 4804,
      "贫": 4805,
      "贬": 4806,
      "购": 4807,
      "贮": 4808,
      "贯": 4809,
      "贰": 4810,
      "贱": 4811,
      "贲": 4812,
      "贴": 4813,
      "贵": 4814,
      "贶": 4815,
      "贷": 4816,
      "贸": 4817,
      "费": 4818,
      "贺": 4819,
      "贻": 4820,
      "贼": 4821,
      "贽": 4822,
      "贾": 4823,
      "贿": 4824,
      "赀": 4825,
      "赁": 4826,
      "赂": 4827,
      "赃": 4828,
      "资": 4829,
      "赅": 4830,
      "赈": 4831,
      "赉": 4832,
      "赊": 4833,
      "赋": 4834,
      "赌": 4835,
      "赍": 4836,
      "赎": 4837,
      "赏": 4838,
      "赐": 4839,
      "赔": 4840,
      "赖": 4841,
      "赘": 4842,
      "赚": 4843,
      "赛": 4844,
      "赝": 4845,
      "赞": 4846,
      "赠": 4847,
      "赡": 4848,
      "赢": 4849,
      "赣": 4850,
      "赤": 4851,
      "赦": 4852,
      "赧": 4853,
      "赫": 4854,
      "赭": 4855,
      "走": 4856,
      "赳": 4857,
      "赴": 4858,
      "赵": 4859,
      "赶": 4860,
      "起": 4861,
      "趁": 4862,
      "趄": 4863,
      "超": 4864,
      "越": 4865,
      "趋": 4866,
      "趑": 4867,
      "趟": 4868,
      "趣": 4869,
      "趱": 4870,
      "足": 4871,
      "趴": 4872,
      "趵": 4873,
      "趺": 4874,
      "趾": 4875,
      "跂": 4876,
      "跃": 4877,
      "跄": 4878,
      "跇": 4879,
      "跋": 4880,
      "跌": 4881,
      "跎": 4882,
      "跑": 4883,
      "跖": 4884,
      "跗": 4885,
      "跚": 4886,
      "跛": 4887,
      "距": 4888,
      "跟": 4889,
      "跤": 4890,
      "跨": 4891,
      "跪": 4892,
      "路": 4893,
      "跳": 4894,
      "践": 4895,
      "跶": 4896,
      "跷": 4897,
      "跸": 4898,
      "跹": 4899,
      "跺": 4900,
      "跻": 4901,
      "踅": 4902,
      "踉": 4903,
      "踊": 4904,
      "踌": 4905,
      "踏": 4906,
      "踐": 4907,
      "踝": 4908,
      "踞": 4909,
      "踟": 4910,
      "踢": 4911,
      "踣": 4912,
      "踩": 4913,
      "踪": 4914,
      "踬": 4915,
      "踭": 4916,
      "踯": 4917,
      "踱": 4918,
      "踵": 4919,
      "踹": 4920,
      "踼": 4921,
      "踽": 4922,
      "蹁": 4923,
      "蹂": 4924,
      "蹄": 4925,
      "蹇": 4926,
      "蹈": 4927,
      "蹉": 4928,
      "蹊": 4929,
      "蹋": 4930,
      "蹑": 4931,
      "蹒": 4932,
      "蹓": 4933,
      "蹙": 4934,
      "蹚": 4935,
      "蹦": 4936,
      "蹧": 4937,
      "蹩": 4938,
      "蹬": 4939,
      "蹭": 4940,
      "蹰": 4941,
      "蹲": 4942,
      "蹴": 4943,
      "蹶": 4944,
      "蹺": 4945,
      "蹻": 4946,
      "蹿": 4947,
      "躁": 4948,
      "躅": 4949,
      "躇": 4950,
      "躏": 4951,
      "躐": 4952,
      "躝": 4953,
      "身": 4954,
      "躬": 4955,
      "躯": 4956,
      "躲": 4957,
      "躺": 4958,
      "輪": 4959,
      "车": 4960,
      "轧": 4961,
      "轨": 4962,
      "轩": 4963,
      "轫": 4964,
      "转": 4965,
      "轮": 4966,
      "软": 4967,
      "轰": 4968,
      "轲": 4969,
      "轳": 4970,
      "轴": 4971,
      "轶": 4972,
      "轸": 4973,
      "轻": 4974,
      "轼": 4975,
      "载": 4976,
      "轾": 4977,
      "轿": 4978,
      "辂": 4979,
      "较": 4980,
      "辄": 4981,
      "辅": 4982,
      "辆": 4983,
      "辇": 4984,
      "辈": 4985,
      "辉": 4986,
      "辍": 4987,
      "辎": 4988,
      "辏": 4989,
      "辐": 4990,
      "辑": 4991,
      "输": 4992,
      "辔": 4993,
      "辕": 4994,
      "辖": 4995,
      "辗": 4996,
      "辘": 4997,
      "辙": 4998,
      "辚": 4999,
      "辛": 5000,
      "辜": 5001,
      "辞": 5002,
      "辟": 5003,
      "辣": 5004,
      "辦": 5005,
      "辨": 5006,
      "辩": 5007,
      "辫": 5008,
      "辰": 5009,
      "辱": 5010,
      "边": 5011,
      "辽": 5012,
      "达": 5013,
      "迁": 5014,
      "迂": 5015,
      "迄": 5016,
      "迅": 5017,
      "过": 5018,
      "迈": 5019,
      "迎": 5020,
      "运": 5021,
      "近": 5022,
      "迓": 5023,
      "返": 5024,
      "迕": 5025,
      "迗": 5026,
      "还": 5027,
      "这": 5028,
      "进": 5029,
      "远": 5030,
      "违": 5031,
      "连": 5032,
      "迟": 5033,
      "迢": 5034,
      "迤": 5035,
      "迥": 5036,
      "迦": 5037,
      "迨": 5038,
      "迩": 5039,
      "迪": 5040,
      "迫": 5041,
      "迭": 5042,
      "迮": 5043,
      "述": 5044,
      "迳": 5045,
      "迴": 5046,
      "迷": 5047,
      "迸": 5048,
      "迹": 5049,
      "追": 5050,
      "退": 5051,
      "送": 5052,
      "适": 5053,
      "逃": 5054,
      "逄": 5055,
      "逅": 5056,
      "逆": 5057,
      "选": 5058,
      "逊": 5059,
      "逋": 5060,
      "逍": 5061,
      "透": 5062,
      "逐": 5063,
      "逑": 5064,
      "递": 5065,
      "途": 5066,
      "逖": 5067,
      "逗": 5068,
      "通": 5069,
      "逛": 5070,
      "逝": 5071,
      "逞": 5072,
      "速": 5073,
      "造": 5074,
      "逡": 5075,
      "逢": 5076,
      "逦": 5077,
      "逭": 5078,
      "逮": 5079,
      "週": 5080,
      "進": 5081,
      "逵": 5082,
      "逸": 5083,
      "逻": 5084,
      "逼": 5085,
      "逾": 5086,
      "遁": 5087,
      "遂": 5088,
      "遄": 5089,
      "遇": 5090,
      "遍": 5091,
      "遏": 5092,
      "遐": 5093,
      "遑": 5094,
      "遒": 5095,
      "道": 5096,
      "遗": 5097,
      "遘": 5098,
      "遛": 5099,
      "遢": 5100,
      "遣": 5101,
      "遥": 5102,
      "遨": 5103,
      "遭": 5104,
      "遮": 5105,
      "遵": 5106,
      "遽": 5107,
      "避": 5108,
      "邀": 5109,
      "邂": 5110,
      "邃": 5111,
      "邈": 5112,
      "邋": 5113,
      "邑": 5114,
      "邓": 5115,
      "邕": 5116,
      "邙": 5117,
      "邝": 5118,
      "邢": 5119,
      "那": 5120,
      "邦": 5121,
      "邪": 5122,
      "邮": 5123,
      "邯": 5124,
      "邱": 5125,
      "邵": 5126,
      "邸": 5127,
      "邺": 5128,
      "邻": 5129,
      "郁": 5130,
      "郄": 5131,
      "郅": 5132,
      "郊": 5133,
      "郎": 5134,
      "郑": 5135,
      "郝": 5136,
      "郞": 5137,
      "郡": 5138,
      "郢": 5139,
      "郧": 5140,
      "部": 5141,
      "郭": 5142,
      "郸": 5143,
      "都": 5144,
      "郾": 5145,
      "鄂": 5146,
      "鄙": 5147,
      "鄜": 5148,
      "鄱": 5149,
      "酉": 5150,
      "酊": 5151,
      "酋": 5152,
      "酌": 5153,
      "配": 5154,
      "酒": 5155,
      "酖": 5156,
      "酗": 5157,
      "酡": 5158,
      "酢": 5159,
      "酣": 5160,
      "酤": 5161,
      "酥": 5162,
      "酩": 5163,
      "酪": 5164,
      "酬": 5165,
      "酱": 5166,
      "酲": 5167,
      "酵": 5168,
      "酷": 5169,
      "酸": 5170,
      "酹": 5171,
      "酿": 5172,
      "醇": 5173,
      "醉": 5174,
      "醋": 5175,
      "醍": 5176,
      "醐": 5177,
      "醒": 5178,
      "醪": 5179,
      "醮": 5180,
      "醺": 5181,
      "釆": 5182,
      "采": 5183,
      "释": 5184,
      "釋": 5185,
      "里": 5186,
      "重": 5187,
      "野": 5188,
      "量": 5189,
      "金": 5190,
      "釓": 5191,
      "釜": 5192,
      "鉴": 5193,
      "銀": 5194,
      "銮": 5195,
      "鋪": 5196,
      "錄": 5197,
      "錯": 5198,
      "鏐": 5199,
      "鏖": 5200,
      "鏹": 5201,
      "鑑": 5202,
      "鑨": 5203,
      "针": 5204,
      "钉": 5205,
      "钌": 5206,
      "钏": 5207,
      "钓": 5208,
      "钗": 5209,
      "钝": 5210,
      "钞": 5211,
      "钟": 5212,
      "钢": 5213,
      "钤": 5214,
      "钥": 5215,
      "钦": 5216,
      "钧": 5217,
      "钩": 5218,
      "钮": 5219,
      "钯": 5220,
      "钰": 5221,
      "钱": 5222,
      "钲": 5223,
      "钳": 5224,
      "钵": 5225,
      "钹": 5226,
      "钺": 5227,
      "钻": 5228,
      "钽": 5229,
      "钾": 5230,
      "钿": 5231,
      "铁": 5232,
      "铃": 5233,
      "铄": 5234,
      "铅": 5235,
      "铊": 5236,
      "铋": 5237,
      "铎": 5238,
      "铐": 5239,
      "铒": 5240,
      "铓": 5241,
      "铖": 5242,
      "铗": 5243,
      "铙": 5244,
      "铛": 5245,
      "铜": 5246,
      "铠": 5247,
      "铡": 5248,
      "铢": 5249,
      "铣": 5250,
      "铤": 5251,
      "铨": 5252,
      "铩": 5253,
      "铭": 5254,
      "铮": 5255,
      "铰": 5256,
      "铲": 5257,
      "铳": 5258,
      "铵": 5259,
      "银": 5260,
      "铸": 5261,
      "铺": 5262,
      "链": 5263,
      "铿": 5264,
      "销": 5265,
      "锁": 5266,
      "锄": 5267,
      "锅": 5268,
      "锈": 5269,
      "锉": 5270,
      "锊": 5271,
      "锋": 5272,
      "锏": 5273,
      "锐": 5274,
      "锒": 5275,
      "锗": 5276,
      "错": 5277,
      "锚": 5278,
      "锜": 5279,
      "锞": 5280,
      "锡": 5281,
      "锢": 5282,
      "锣": 5283,
      "锤": 5284,
      "锥": 5285,
      "锦": 5286,
      "锭": 5287,
      "键": 5288,
      "锯": 5289,
      "锱": 5290,
      "锲": 5291,
      "锵": 5292,
      "锹": 5293,
      "锻": 5294,
      "镀": 5295,
      "镂": 5296,
      "镅": 5297,
      "镇": 5298,
      "镊": 5299,
      "镌": 5300,
      "镔": 5301,
      "镕": 5302,
      "镖": 5303,
      "镗": 5304,
      "镛": 5305,
      "镜": 5306,
      "镞": 5307,
      "镠": 5308,
      "镣": 5309,
      "镪": 5310,
      "镫": 5311,
      "镬": 5312,
      "镭": 5313,
      "镯": 5314,
      "镰": 5315,
      "镲": 5316,
      "镳": 5317,
      "镶": 5318,
      "长": 5319,
      "間": 5320,
      "閤": 5321,
      "门": 5322,
      "闩": 5323,
      "闪": 5324,
      "闭": 5325,
      "问": 5326,
      "闯": 5327,
      "闰": 5328,
      "闱": 5329,
      "闲": 5330,
      "闳": 5331,
      "间": 5332,
      "闵": 5333,
      "闶": 5334,
      "闷": 5335,
      "闸": 5336,
      "闹": 5337,
      "闺": 5338,
      "闻": 5339,
      "闼": 5340,
      "闽": 5341,
      "闾": 5342,
      "阀": 5343,
      "阁": 5344,
      "阂": 5345,
      "阃": 5346,
      "阄": 5347,
      "阅": 5348,
      "阆": 5349,
      "阇": 5350,
      "阉": 5351,
      "阊": 5352,
      "阋": 5353,
      "阍": 5354,
      "阎": 5355,
      "阏": 5356,
      "阐": 5357,
      "阑": 5358,
      "阒": 5359,
      "阓": 5360,
      "阔": 5361,
      "阕": 5362,
      "阖": 5363,
      "阗": 5364,
      "阙": 5365,
      "阛": 5366,
      "阜": 5367,
      "队": 5368,
      "阪": 5369,
      "阮": 5370,
      "阱": 5371,
      "防": 5372,
      "阳": 5373,
      "阴": 5374,
      "阵": 5375,
      "阶": 5376,
      "阻": 5377,
      "阽": 5378,
      "阿": 5379,
      "陀": 5380,
      "陂": 5381,
      "附": 5382,
      "际": 5383,
      "陆": 5384,
      "陇": 5385,
      "陈": 5386,
      "陋": 5387,
      "陌": 5388,
      "降": 5389,
      "限": 5390,
      "陕": 5391,
      "陚": 5392,
      "陛": 5393,
      "陟": 5394,
      "陡": 5395,
      "院": 5396,
      "除": 5397,
      "陨": 5398,
      "险": 5399,
      "陪": 5400,
      "陲": 5401,
      "陵": 5402,
      "陶": 5403,
      "陷": 5404,
      "陸": 5405,
      "隅": 5406,
      "隆": 5407,
      "隋": 5408,
      "隍": 5409,
      "随": 5410,
      "隐": 5411,
      "隔": 5412,
      "隗": 5413,
      "隘": 5414,
      "隙": 5415,
      "障": 5416,
      "隧": 5417,
      "隰": 5418,
      "隶": 5419,
      "隼": 5420,
      "隽": 5421,
      "难": 5422,
      "雀": 5423,
      "雁": 5424,
      "雄": 5425,
      "雅": 5426,
      "集": 5427,
      "雇": 5428,
      "雉": 5429,
      "雌": 5430,
      "雍": 5431,
      "雎": 5432,
      "雏": 5433,
      "雕": 5434,
      "雜": 5435,
      "雠": 5436,
      "雨": 5437,
      "雩": 5438,
      "雪": 5439,
      "雰": 5440,
      "雳": 5441,
      "零": 5442,
      "雷": 5443,
      "雹": 5444,
      "雾": 5445,
      "需": 5446,
      "霁": 5447,
      "霄": 5448,
      "霆": 5449,
      "震": 5450,
      "霉": 5451,
      "霍": 5452,
      "霎": 5453,
      "霏": 5454,
      "霑": 5455,
      "霓": 5456,
      "霖": 5457,
      "霜": 5458,
      "霞": 5459,
      "霨": 5460,
      "霭": 5461,
      "露": 5462,
      "霸": 5463,
      "霹": 5464,
      "靂": 5465,
      "青": 5466,
      "靓": 5467,
      "靖": 5468,
      "静": 5469,
      "靛": 5470,
      "非": 5471,
      "靠": 5472,
      "靡": 5473,
      "面": 5474,
      "靥": 5475,
      "革": 5476,
      "靴": 5477,
      "靶": 5478,
      "靼": 5479,
      "鞋": 5480,
      "鞍": 5481,
      "鞑": 5482,
      "鞘": 5483,
      "鞟": 5484,
      "鞠": 5485,
      "鞭": 5486,
      "鞮": 5487,
      "鞯": 5488,
      "韦": 5489,
      "韧": 5490,
      "韩": 5491,
      "韬": 5492,
      "韭": 5493,
      "音": 5494,
      "韵": 5495,
      "韶": 5496,
      "頁": 5497,
      "頦": 5498,
      "頫": 5499,
      "頰": 5500,
      "類": 5501,
      "页": 5502,
      "顶": 5503,
      "顷": 5504,
      "顸": 5505,
      "项": 5506,
      "顺": 5507,
      "须": 5508,
      "顽": 5509,
      "顾": 5510,
      "顿": 5511,
      "颁": 5512,
      "颂": 5513,
      "颃": 5514,
      "预": 5515,
      "颅": 5516,
      "领": 5517,
      "颇": 5518,
      "颈": 5519,
      "颉": 5520,
      "颊": 5521,
      "颍": 5522,
      "颏": 5523,
      "颐": 5524,
      "频": 5525,
      "颓": 5526,
      "颔": 5527,
      "颖": 5528,
      "颗": 5529,
      "题": 5530,
      "颚": 5531,
      "颛": 5532,
      "颜": 5533,
      "额": 5534,
      "颟": 5535,
      "颠": 5536,
      "颡": 5537,
      "颤": 5538,
      "颦": 5539,
      "颧": 5540,
      "风": 5541,
      "飏": 5542,
      "飒": 5543,
      "飓": 5544,
      "飕": 5545,
      "飘": 5546,
      "飙": 5547,
      "飚": 5548,
      "飞": 5549,
      "食": 5550,
      "飧": 5551,
      "飨": 5552,
      "餍": 5553,
      "餐": 5554,
      "餘": 5555,
      "餮": 5556,
      "餺": 5557,
      "饕": 5558,
      "饥": 5559,
      "饧": 5560,
      "饨": 5561,
      "饪": 5562,
      "饬": 5563,
      "饭": 5564,
      "饮": 5565,
      "饯": 5566,
      "饰": 5567,
      "饱": 5568,
      "饲": 5569,
      "饴": 5570,
      "饵": 5571,
      "饶": 5572,
      "饷": 5573,
      "饺": 5574,
      "饼": 5575,
      "饿": 5576,
      "馀": 5577,
      "馁": 5578,
      "馄": 5579,
      "馅": 5580,
      "馆": 5581,
      "馈": 5582,
      "馋": 5583,
      "馍": 5584,
      "馏": 5585,
      "馐": 5586,
      "馒": 5587,
      "馔": 5588,
      "首": 5589,
      "馗": 5590,
      "香": 5591,
      "馥": 5592,
      "馨": 5593,
      "駿": 5594,
      "騃": 5595,
      "騎": 5596,
      "騑": 5597,
      "驊": 5598,
      "驚": 5599,
      "马": 5600,
      "驭": 5601,
      "驮": 5602,
      "驯": 5603,
      "驰": 5604,
      "驱": 5605,
      "驳": 5606,
      "驴": 5607,
      "驶": 5608,
      "驷": 5609,
      "驸": 5610,
      "驹": 5611,
      "驺": 5612,
      "驻": 5613,
      "驼": 5614,
      "驽": 5615,
      "驾": 5616,
      "驿": 5617,
      "骀": 5618,
      "骁": 5619,
      "骂": 5620,
      "骄": 5621,
      "骅": 5622,
      "骆": 5623,
      "骇": 5624,
      "骈": 5625,
      "骊": 5626,
      "骋": 5627,
      "验": 5628,
      "骎": 5629,
      "骏": 5630,
      "骐": 5631,
      "骑": 5632,
      "骒": 5633,
      "骓": 5634,
      "骗": 5635,
      "骘": 5636,
      "骚": 5637,
      "骛": 5638,
      "骜": 5639,
      "骝": 5640,
      "骞": 5641,
      "骠": 5642,
      "骡": 5643,
      "骢": 5644,
      "骤": 5645,
      "骥": 5646,
      "骧": 5647,
      "骨": 5648,
      "骯": 5649,
      "骰": 5650,
      "骱": 5651,
      "骷": 5652,
      "骸": 5653,
      "骼": 5654,
      "髀": 5655,
      "髅": 5656,
      "髓": 5657,
      "高": 5658,
      "髭": 5659,
      "髯": 5660,
      "髻": 5661,
      "鬃": 5662,
      "鬈": 5663,
      "鬓": 5664,
      "鬟": 5665,
      "鬣": 5666,
      "鬼": 5667,
      "魁": 5668,
      "魂": 5669,
      "魄": 5670,
      "魅": 5671,
      "魇": 5672,
      "魈": 5673,
      "魉": 5674,
      "魍": 5675,
      "魏": 5676,
      "魑": 5677,
      "魔": 5678,
      "魚": 5679,
      "魯": 5680,
      "鱼": 5681,
      "鲁": 5682,
      "鲈": 5683,
      "鲍": 5684,
      "鲎": 5685,
      "鲛": 5686,
      "鲜": 5687,
      "鲞": 5688,
      "鲠": 5689,
      "鲤": 5690,
      "鲨": 5691,
      "鲮": 5692,
      "鲲": 5693,
      "鲸": 5694,
      "鳃": 5695,
      "鳄": 5696,
      "鳅": 5697,
      "鳌": 5698,
      "鳍": 5699,
      "鳐": 5700,
      "鳔": 5701,
      "鳖": 5702,
      "鳝": 5703,
      "鳞": 5704,
      "鳟": 5705,
      "鳩": 5706,
      "鶴": 5707,
      "鸟": 5708,
      "鸠": 5709,
      "鸡": 5710,
      "鸢": 5711,
      "鸣": 5712,
      "鸥": 5713,
      "鸦": 5714,
      "鸨": 5715,
      "鸩": 5716,
      "鸪": 5717,
      "鸫": 5718,
      "鸭": 5719,
      "鸯": 5720,
      "鸱": 5721,
      "鸳": 5722,
      "鸵": 5723,
      "鸶": 5724,
      "鸷": 5725,
      "鸽": 5726,
      "鸾": 5727,
      "鸿": 5728,
      "鹁": 5729,
      "鹂": 5730,
      "鹃": 5731,
      "鹄": 5732,
      "鹅": 5733,
      "鹉": 5734,
      "鹊": 5735,
      "鹌": 5736,
      "鹏": 5737,
      "鹑": 5738,
      "鹗": 5739,
      "鹘": 5740,
      "鹜": 5741,
      "鹞": 5742,
      "鹡": 5743,
      "鹤": 5744,
      "鹦": 5745,
      "鹧": 5746,
      "鹩": 5747,
      "鹪": 5748,
      "鹫": 5749,
      "鹬": 5750,
      "鹰": 5751,
      "鹵": 5752,
      "鹿": 5753,
      "麂": 5754,
      "麇": 5755,
      "麋": 5756,
      "麒": 5757,
      "麓": 5758,
      "麖": 5759,
      "麝": 5760,
      "麟": 5761,
      "麦": 5762,
      "麵": 5763,
      "麻": 5764,
      "麾": 5765,
      "黃": 5766,
      "黄": 5767,
      "黈": 5768,
      "黎": 5769,
      "黏": 5770,
      "黑": 5771,
      "黔": 5772,
      "默": 5773,
      "黛": 5774,
      "黜": 5775,
      "黝": 5776,
      "黠": 5777,
      "黨": 5778,
      "黯": 5779,
      "黼": 5780,
      "鼋": 5781,
      "鼎": 5782,
      "鼓": 5783,
      "鼙": 5784,
      "鼠": 5785,
      "鼹": 5786,
      "鼻": 5787,
      "鼾": 5788,
      "齊": 5789,
      "齐": 5790,
      "齡": 5791,
      "齿": 5792,
      "龂": 5793,
      "龃": 5794,
      "龄": 5795,
      "龉": 5796,
      "龊": 5797,
      "龌": 5798,
      "龐": 5799,
      "龙": 5800,
      "龚": 5801,
      "龛": 5802,
      "龟": 5803,
      "﹒": 5804,
      "！": 5805,
      "（": 5806,
      "）": 5807,
      "＋": 5808,
      "，": 5809,
      "－": 5810,
      "：": 5811,
      "；": 5812,
      "？": 5813,
      "～": 5814,
      "什么": 5815,
      "说道": 5816,
      "了一": 5817,
      "自己": 5818,
      "小宝": 5819,
      "韦小宝": 5820,
      "一个": 5821,
      "也不": 5822,
      "笑道": 5823,
      "不是": 5824,
      "咱们": 5825,
      "武功": 5826,
      "令狐": 5827,
      "郭靖": 5828,
      "不知": 5829,
      "这一": 5830,
      "师父": 5831,
      "杨过": 5832,
      "一声": 5833,
      "心中": 5834,
      "令狐冲": 5835,
      "他们": 5836,
      "听得": 5837,
      "出来": 5838,
      "心想": 5839,
      "叫道": 5840,
      "无忌": 5841,
      "黄蓉": 5842,
      "兄弟": 5843,
      "两人": 5844,
      "张无忌": 5845,
      "我们": 5846,
      "如此": 5847,
      "姑娘": 5848,
      "如何": 5849,
      "弟子": 5850,
      "二人": 5851,
      "突然": 5852,
      "声道": 5853,
      "知道": 5854,
      "不过": 5855,
      "不能": 5856,
      "众人": 5857,
      "之中": 5858,
      "到了": 5859,
      "只见": 5860,
      "你们": 5861,
      "不敢": 5862,
      "原来": 5863,
      "怎么": 5864,
      "段誉": 5865,
      "不住": 5866,
      "的一声": 5867,
      "不得": 5868,
      "这里": 5869,
      "这时": 5870,
      "承志": 5871,
      "见他": 5872,
      "起来": 5873,
      "便是": 5874,
      "不可": 5875,
      "身上": 5876,
      "胡斐": 5877,
      "都是": 5878,
      "身子": 5879,
      "这么": 5880,
      "脸上": 5881,
      "问道": 5882,
      "见到": 5883,
      "倘若": 5884,
      "今日": 5885,
      "之后": 5886,
      "之间": 5887,
      "夫人": 5888,
      "一人": 5889,
      "了他": 5890,
      "功夫": 5891,
      "跟着": 5892,
      "少林": 5893,
      "天下": 5894,
      "可是": 5895,
      "左手": 5896,
      "出去": 5897,
      "伸手": 5898,
      "两个": 5899,
      "大哥": 5900,
      "袁承志": 5901,
      "这些": 5902,
      "有人": 5903,
      "当真": 5904,
      "爹爹": 5905,
      "说话": 5906,
      "的一": 5907,
      "之下": 5908,
      "三人": 5909,
      "是一": 5910,
      "喝道": 5911,
      "教主": 5912,
      "登时": 5913,
      "那人": 5914,
      "正是": 5915,
      "还是": 5916,
      "性命": 5917,
      "韦小宝道": 5918,
      "龙女": 5919,
      "小龙女": 5920,
      "长剑": 5921,
      "只是": 5922,
      "一笑": 5923,
      "有什么": 5924,
      "大师": 5925,
      "过去": 5926,
      "人家": 5927,
      "这个": 5928,
      "了几": 5929,
      "在地": 5930,
      "双手": 5931,
      "自然": 5932,
      "不到": 5933,
      "声音": 5934,
      "说着": 5935,
      "你的": 5936,
      "右手": 5937,
      "欧阳": 5938,
      "下来": 5939,
      "点头": 5940,
      "句话": 5941,
      "我的": 5942,
      "有一": 5943,
      "不会": 5944,
      "山派": 5945,
      "英雄": 5946,
      "陈家": 5947,
      "手中": 5948,
      "就是": 5949,
      "陈家洛": 5950,
      "他的": 5951,
      "剑法": 5952,
      "帮主": 5953,
      "住了": 5954,
      "不由": 5955,
      "你这": 5956,
      "皇帝": 5957,
      "难道": 5958,
      "只怕": 5959,
      "哈哈": 5960,
      "在他": 5961,
      "江湖": 5962,
      "你说": 5963,
      "上一": 5964,
      "女子": 5965,
      "这位": 5966,
      "也是": 5967,
      "死了": 5968,
      "过来": 5969,
      "哪里": 5970,
      "杀了": 5971,
      "皇上": 5972,
      "当下": 5973,
      "公子": 5974,
      "在一": 5975,
      "公主": 5976,
      "轻轻": 5977,
      "眼见": 5978,
      "也没": 5979,
      "内力": 5980,
      "心下": 5981,
      "先生": 5982,
      "萧峰": 5983,
      "慕容": 5984,
      "人的": 5985,
      "对方": 5986,
      "给他": 5987,
      "忽然": 5988,
      "出手": 5989,
      "一般": 5990,
      "上了": 5991,
      "中的": 5992,
      "那是": 5993,
      "和尚": 5994,
      "掌门": 5995,
      "厉害": 5996,
      "武林": 5997,
      "破天": 5998,
      "石破天": 5999,
      "婆婆": 6000,
      "的是": 6001,
      "本来": 6002,
      "微微": 6003,
      "地道": 6004,
      "不由得": 6005,
      "明白": 6006,
      "身来": 6007,
      "说不": 6008,
      "这是": 6009,
      "想到": 6010,
      "过了": 6011,
      "这样": 6012,
      "此时": 6013,
      "之时": 6014,
      "听到": 6015,
      "大叫": 6016,
      "兵刃": 6017,
      "这般": 6018,
      "不禁": 6019,
      "当即": 6020,
      "十分": 6021,
      "敌人": 6022,
      "上的": 6023,
      "下去": 6024,
      "摇头": 6025,
      "这小": 6026,
      "虚竹": 6027,
      "朋友": 6028,
      "一时": 6029,
      "的大": 6030,
      "是我": 6031,
      "大家": 6032,
      "那老": 6033,
      "是个": 6034,
      "只听得": 6035,
      "一阵": 6036,
      "是谁": 6037,
      "孩子": 6038,
      "口气": 6039,
      "蒙古": 6040,
      "不见": 6041,
      "少女": 6042,
      "这才": 6043,
      "了出来": 6044,
      "将他": 6045,
      "似乎": 6046,
      "之人": 6047,
      "十余": 6048,
      "少年": 6049,
      "胸口": 6050,
      "站起": 6051,
      "走到": 6052,
      "在下": 6053,
      "师兄": 6054,
      "虽然": 6055,
      "许多": 6056,
      "为什么": 6057,
      "第一": 6058,
      "的人": 6059,
      "长老": 6060,
      "就算": 6061,
      "后来": 6062,
      "两位": 6063,
      "心道": 6064,
      "欧阳锋": 6065,
      "之事": 6066,
      "这等": 6067,
      "在这里": 6068,
      "出一": 6069,
      "全身": 6070,
      "果然": 6071,
      "想起": 6072,
      "汉子": 6073,
      "不及": 6074,
      "狄云": 6075,
      "一惊": 6076,
      "我不": 6077,
      "低声道": 6078,
      "给我": 6079,
      "当年": 6080,
      "在地下": 6081,
      "只要": 6082,
      "这几": 6083,
      "不错": 6084,
      "给你": 6085,
      "之极": 6086,
      "大笑": 6087,
      "前辈": 6088,
      "他一": 6089,
      "儿子": 6090,
      "却是": 6091,
      "太后": 6092,
      "年纪": 6093,
      "丐帮": 6094,
      "大声": 6095,
      "更加": 6096,
      "动手": 6097,
      "来到": 6098,
      "高手": 6099,
      "不肯": 6100,
      "穴道": 6101,
      "为了": 6102,
      "听他": 6103,
      "女儿": 6104,
      "康熙": 6105,
      "说得": 6106,
      "七公": 6107,
      "大喜": 6108,
      "没有": 6109,
      "此刻": 6110,
      "上来": 6111,
      "甚是": 6112,
      "慢慢": 6113,
      "了个": 6114,
      "只得": 6115,
      "向他": 6116,
      "这人": 6117,
      "你是": 6118,
      "赵敏": 6119,
      "立时": 6120,
      "不好": 6121,
      "同时": 6122,
      "去了": 6123,
      "只有": 6124,
      "国师": 6125,
      "便即": 6126,
      "只觉": 6127,
      "不起": 6128,
      "转身": 6129,
      "伯通": 6130,
      "十八": 6131,
      "洪七公": 6132,
      "来的": 6133,
      "周伯通": 6134,
      "适才": 6135,
      "他是": 6136,
      "数十": 6137,
      "的手": 6138,
      "我一": 6139,
      "说了": 6140,
      "道人": 6141,
      "乔峰": 6142,
      "见她": 6143,
      "件事": 6144,
      "因此": 6145,
      "着一": 6146,
      "在这": 6147,
      "那么": 6148,
      "上前": 6149,
      "片刻": 6150,
      "一招": 6151,
      "不了": 6152,
      "四人": 6153,
      "我是": 6154,
      "怒道": 6155,
      "早已": 6156,
      "谢逊": 6157,
      "师弟": 6158,
      "始终": 6159,
      "师太": 6160,
      "了起来": 6161,
      "不群": 6162,
      "瞧瞧": 6163,
      "忽听得": 6164,
      "只听": 6165,
      "岳不群": 6166,
      "夫妇": 6167,
      "又道": 6168,
      "师妹": 6169,
      "抓住": 6170,
      "第二": 6171,
      "侍卫": 6172,
      "你不": 6173,
      "翠山": 6174,
      "父亲": 6175,
      "黄药": 6176,
      "说到": 6177,
      "一齐": 6178,
      "黄药师": 6179,
      "否则": 6180,
      "旁人": 6181,
      "阿紫": 6182,
      "之上": 6183,
      "张翠山": 6184,
      "盈盈": 6185,
      "跟我": 6186,
      "是不是": 6187,
      "之外": 6188,
      "不成": 6189,
      "其实": 6190,
      "之意": 6191,
      "怎地": 6192,
      "三个": 6193,
      "到底": 6194,
      "脸色": 6195,
      "银子": 6196,
      "郭襄": 6197,
      "的话": 6198,
      "之声": 6199,
      "得很": 6200,
      "少林寺": 6201,
      "神色": 6202,
      "哥哥": 6203,
      "回来": 6204,
      "怎样": 6205,
      "派的": 6206,
      "阿朱": 6207,
      "师哥": 6208,
      "武当": 6209,
      "师叔": 6210,
      "跟你": 6211,
      "放在": 6212,
      "立即": 6213,
      "一名": 6214,
      "于是": 6215,
      "半点": 6216,
      "眼前": 6217,
      "各人": 6218,
      "妈妈": 6219,
      "此人": 6220,
      "人人": 6221,
      "随即": 6222,
      "了这": 6223,
      "不动": 6224,
      "但见": 6225,
      "却又": 6226,
      "还有": 6227,
      "居然": 6228,
      "大的": 6229,
      "终于": 6230,
      "莫愁": 6231,
      "李莫愁": 6232,
      "缓缓": 6233,
      "丈夫": 6234,
      "不同": 6235,
      "了一声": 6236,
      "两名": 6237,
      "不少": 6238,
      "身后": 6239,
      "不出": 6240,
      "清楚": 6241,
      "的小": 6242,
      "哪知": 6243,
      "暗暗": 6244,
      "王爷": 6245,
      "大人": 6246,
      "并不": 6247,
      "进来": 6248,
      "丝毫": 6249,
      "老人家": 6250,
      "难以": 6251,
      "内功": 6252,
      "吴三": 6253,
      "头来": 6254,
      "群雄": 6255,
      "东西": 6256,
      "了一会": 6257,
      "不用": 6258,
      "吴三桂": 6259,
      "见过": 6260,
      "有的": 6261,
      "言语": 6262,
      "点了": 6263,
      "眼睛": 6264,
      "那少女": 6265,
      "却也": 6266,
      "好了": 6267,
      "青青": 6268,
      "平之": 6269,
      "的事": 6270,
      "是什么": 6271,
      "之前": 6272,
      "了我": 6273,
      "满脸": 6274,
      "吩咐": 6275,
      "手指": 6276,
      "肩头": 6277,
      "语嫣": 6278,
      "徐天": 6279,
      "灵珊": 6280,
      "之处": 6281,
      "你一": 6282,
      "七八": 6283,
      "哈哈大笑": 6284,
      "出了": 6285,
      "未必": 6286,
      "跟他": 6287,
      "此事": 6288,
      "欢喜": 6289,
      "走了": 6290,
      "实在": 6291,
      "大伙": 6292,
      "林平之": 6293,
      "江湖上": 6294,
      "定是": 6295,
      "岳灵珊": 6296,
      "叫做": 6297,
      "多半": 6298,
      "王语嫣": 6299,
      "几个": 6300,
      "令狐冲道": 6301,
      "芷若": 6302,
      "提起": 6303,
      "各位": 6304,
      "身边": 6305,
      "完颜": 6306,
      "忍不住": 6307,
      "要是": 6308,
      "有些": 6309,
      "上去": 6310,
      "之际": 6311,
      "子的": 6312,
      "脚步": 6313,
      "鲜血": 6314,
      "手下": 6315,
      "说什么": 6316,
      "只道": 6317,
      "口中": 6318,
      "慕容复": 6319,
      "大侠": 6320,
      "奇怪": 6321,
      "手臂": 6322,
      "一动": 6323,
      "全真": 6324,
      "了得": 6325,
      "见了": 6326,
      "回头": 6327,
      "身旁": 6328,
      "二十": 6329,
      "其中": 6330,
      "模样": 6331,
      "站在": 6332,
      "答应": 6333,
      "一直": 6334,
      "那个": 6335,
      "便在": 6336,
      "声响": 6337,
      "不再": 6338,
      "突然间": 6339,
      "大事": 6340,
      "一条": 6341,
      "处机": 6342,
      "郭芙": 6343,
      "站起身来": 6344,
      "瞧着": 6345,
      "丘处机": 6346,
      "开了": 6347,
      "了口气": 6348,
      "太监": 6349,
      "当时": 6350,
      "年来": 6351,
      "转头": 6352,
      "一怔": 6353,
      "明教": 6354,
      "成了": 6355,
      "正要": 6356,
      "手掌": 6357,
      "怎能": 6358,
      "又是": 6359,
      "叫我": 6360,
      "啊哟": 6361,
      "暗器": 6362,
      "名字": 6363,
      "齐声": 6364,
      "三十": 6365,
      "已然": 6366,
      "地下": 6367,
      "以为": 6368,
      "坐在": 6369,
      "微笑道": 6370,
      "好好": 6371,
      "孩儿": 6372,
      "真的": 6373,
      "寻思": 6374,
      "远远": 6375,
      "大伙儿": 6376,
      "自是": 6377,
      "现下": 6378,
      "一面": 6379,
      "可惜": 6380,
      "小子": 6381,
      "时候": 6382,
      "段正": 6383,
      "背上": 6384,
      "再也": 6385,
      "再说": 6386,
      "不免": 6387,
      "姊姊": 6388,
      "何况": 6389,
      "听了": 6390,
      "周芷若": 6391,
      "你要": 6392,
      "裘千": 6393,
      "下了": 6394,
      "干什么": 6395,
      "母亲": 6396,
      "不多": 6397,
      "刚才": 6398,
      "受伤": 6399,
      "半晌": 6400,
      "中了": 6401,
      "将军": 6402,
      "很好": 6403,
      "我也": 6404,
      "天地": 6405,
      "的武功": 6406,
      "不如": 6407,
      "又有": 6408,
      "古怪": 6409,
      "便要": 6410,
      "真是": 6411,
      "一会": 6412,
      "程灵": 6413,
      "回去": 6414,
      "觉得": 6415,
      "头上": 6416,
      "了一眼": 6417,
      "却不": 6418,
      "只不过": 6419,
      "身前": 6420,
      "老子": 6421,
      "程灵素": 6422,
      "法子": 6423,
      "须得": 6424,
      "是你": 6425,
      "不要": 6426,
      "微微一笑": 6427,
      "段正淳": 6428,
      "看来": 6429,
      "而出": 6430,
      "向前": 6431,
      "总是": 6432,
      "老爷": 6433,
      "召重": 6434,
      "这么一": 6435,
      "武林中": 6436,
      "了两": 6437,
      "老者": 6438,
      "我要": 6439,
      "一路": 6440,
      "张召重": 6441,
      "大声道": 6442,
      "头顶": 6443,
      "报仇": 6444,
      "掌力": 6445,
      "面前": 6446,
      "得罪": 6447,
      "大有": 6448,
      "我这": 6449,
      "何必": 6450,
      "华山": 6451,
      "知他": 6452,
      "十二": 6453,
      "打得": 6454,
      "摇头道": 6455,
      "多谢": 6456,
      "进去": 6457,
      "大理": 6458,
      "婉清": 6459,
      "木婉清": 6460,
      "着他": 6461,
      "好生": 6462,
      "了你": 6463,
      "倒也": 6464,
      "吃了一": 6465,
      "不相": 6466,
      "大汉": 6467,
      "和他": 6468,
      "黄蓉道": 6469,
      "不料": 6470,
      "地方": 6471,
      "田伯": 6472,
      "多少": 6473,
      "容易": 6474,
      "是以": 6475,
      "纷纷": 6476,
      "给人": 6477,
      "无不": 6478,
      "江南": 6479,
      "急忙": 6480,
      "武学": 6481,
      "仪琳": 6482,
      "招数": 6483,
      "下的": 6484,
      "了下来": 6485,
      "这次": 6486,
      "好汉": 6487,
      "怀中": 6488,
      "一步": 6489,
      "这件事": 6490,
      "头陀": 6491,
      "指点": 6492,
      "那女": 6493,
      "四个": 6494,
      "叹了口气": 6495,
      "时辰": 6496,
      "听说": 6497,
      "背后": 6498,
      "吓得": 6499,
      "自己的": 6500,
      "取出": 6501,
      "向后": 6502,
      "手腕": 6503,
      "田伯光": 6504,
      "答允": 6505,
      "回到": 6506,
      "阿珂": 6507,
      "不知道": 6508,
      "在她": 6509,
      "我去": 6510,
      "华山派": 6511,
      "双儿": 6512,
      "小心": 6513,
      "有个": 6514,
      "转过": 6515,
      "是他": 6516,
      "骂道": 6517,
      "得多": 6518,
      "我可": 6519,
      "在一起": 6520,
      "向来": 6521,
      "料想": 6522,
      "无法": 6523,
      "舵主": 6524,
      "掌门人": 6525,
      "忙道": 6526,
      "也不敢": 6527,
      "渐渐": 6528,
      "了出去": 6529,
      "一刀": 6530,
      "一定": 6531,
      "小人": 6532,
      "而去": 6533,
      "群豪": 6534,
      "一只": 6535,
      "隐隐": 6536,
      "躬身": 6537,
      "徐天宏": 6538,
      "师伯": 6539,
      "无双": 6540,
      "那姓": 6541,
      "一片": 6542,
      "不必": 6543,
      "百姓": 6544,
      "方丈": 6545,
      "不愿": 6546,
      "的声音": 6547,
      "道长": 6548,
      "无人": 6549,
      "衣衫": 6550,
      "这一招": 6551,
      "不在": 6552,
      "本事": 6553,
      "冷笑道": 6554,
      "耶律": 6555,
      "背心": 6556,
      "又想": 6557,
      "沉吟": 6558,
      "了一个": 6559,
      "青桐": 6560,
      "郭靖道": 6561,
      "也已": 6562,
      "叫他": 6563,
      "一起": 6564,
      "从来": 6565,
      "不对": 6566,
      "兀自": 6567,
      "房中": 6568,
      "老公": 6569,
      "个个": 6570,
      "暗中": 6571,
      "霍青桐": 6572,
      "得到": 6573,
      "桃花": 6574,
      "可以": 6575,
      "对付": 6576,
      "喜欢": 6577,
      "大惊": 6578,
      "香主": 6579,
      "第三": 6580,
      "这一下": 6581,
      "点了点头": 6582,
      "低声": 6583,
      "小小": 6584,
      "满了": 6585,
      "我说": 6586,
      "杀人": 6587,
      "吃了一惊": 6588,
      "并无": 6589,
      "我爹爹": 6590,
      "望着": 6591,
      "这两": 6592,
      "爷爷": 6593,
      "你去": 6594,
      "佩服": 6595,
      "这小子": 6596,
      "生怕": 6597,
      "不论": 6598,
      "当然": 6599,
      "那些": 6600,
      "一位": 6601,
      "只好": 6602,
      "妹子": 6603,
      "来了": 6604,
      "就此": 6605,
      "走进": 6606,
      "他说": 6607,
      "她的": 6608,
      "门外": 6609,
      "良久": 6610,
      "大怒": 6611,
      "重伤": 6612,
      "功力": 6613,
      "张三": 6614,
      "得了": 6615,
      "心头": 6616,
      "我就": 6617,
      "他在": 6618,
      "日后": 6619,
      "最后": 6620,
      "罗刹": 6621,
      "是啊": 6622,
      "除了": 6623,
      "得紧": 6624,
      "相救": 6625,
      "确是": 6626,
      "魔教": 6627,
      "北京": 6628,
      "心中一": 6629,
      "便道": 6630,
      "分别": 6631,
      "只须": 6632,
      "官兵": 6633,
      "来越": 6634,
      "也不知": 6635,
      "左右": 6636,
      "手里": 6637,
      "说不定": 6638,
      "乾隆": 6639,
      "我师父": 6640,
      "神情": 6641,
      "中原": 6642,
      "越来越": 6643,
      "入了": 6644,
      "正在": 6645,
      "胡说": 6646,
      "感激": 6647,
      "放心": 6648,
      "的好": 6649,
      "那时": 6650,
      "桌上": 6651,
      "单刀": 6652,
      "四下": 6653,
      "晚辈": 6654,
      "也不能": 6655,
      "磕头": 6656,
      "欧阳克": 6657,
      "一个人": 6658,
      "石清": 6659,
      "轻功": 6660,
      "重重": 6661,
      "已经": 6662,
      "张无忌道": 6663,
      "一张": 6664,
      "冷冷": 6665,
      "说不出": 6666,
      "义父": 6667,
      "请你": 6668,
      "文泰": 6669,
      "一点": 6670,
      "当日": 6671,
      "腰间": 6672,
      "那也": 6673,
      "那就": 6674,
      "显是": 6675,
      "王府": 6676,
      "决不": 6677,
      "还不": 6678,
      "鞑子": 6679,
      "双掌": 6680,
      "小姐": 6681,
      "干吗": 6682,
      "叹道": 6683,
      "将她": 6684,
      "了过去": 6685,
      "生死": 6686,
      "露出": 6687,
      "杨过道": 6688,
      "纵身": 6689,
      "反而": 6690,
      "一掌": 6691,
      "对手": 6692,
      "男子": 6693,
      "鸠摩": 6694,
      "为人": 6695,
      "奴才": 6696,
      "并非": 6697,
      "解药": 6698,
      "世上": 6699,
      "童姥": 6700,
      "给她": 6701,
      "鸠摩智": 6702,
      "所在": 6703,
      "但他": 6704,
      "前来": 6705,
      "那日": 6706,
      "先前": 6707,
      "心里": 6708,
      "理会": 6709,
      "余鱼": 6710,
      "让他": 6711,
      "何以": 6712,
      "异常": 6713,
      "镇恶": 6714,
      "竟是": 6715,
      "尽数": 6716,
      "左掌": 6717,
      "骆冰": 6718,
      "点头道": 6719,
      "文泰来": 6720,
      "神功": 6721,
      "余鱼同": 6722,
      "一把": 6723,
      "走出": 6724,
      "主意": 6725,
      "以后": 6726,
      "匕首": 6727,
      "用力": 6728,
      "在我": 6729,
      "柯镇恶": 6730,
      "起了": 6731,
      "嘿嘿": 6732,
      "人物": 6733,
      "决计": 6734,
      "大吃": 6735,
      "跃起": 6736,
      "伸出": 6737,
      "前面": 6738,
      "是好": 6739,
      "闪避": 6740,
      "在此": 6741,
      "比武": 6742,
      "素素": 6743,
      "还没": 6744,
      "一眼": 6745,
      "然道": 6746,
      "便如": 6747,
      "老大": 6748,
      "其余": 6749,
      "叫你": 6750,
      "而来": 6751,
      "害怕": 6752,
      "少林派": 6753,
      "丁不": 6754,
      "受了": 6755,
      "一句": 6756,
      "姑姑": 6757,
      "中国": 6758,
      "我便": 6759,
      "空中": 6760,
      "走近": 6761,
      "中间": 6762,
      "为难": 6763,
      "接过": 6764,
      "无比": 6765,
      "双目": 6766,
      "父母": 6767,
      "说的": 6768,
      "恒山派": 6769,
      "这番": 6770,
      "若不是": 6771,
      "劲力": 6772,
      "殷素素": 6773,
      "相助": 6774,
      "师姊": 6775,
      "我行": 6776,
      "错了": 6777,
      "一见": 6778,
      "周绮": 6779,
      "苗人": 6780,
      "万万": 6781,
      "全无": 6782,
      "终究": 6783,
      "聪明": 6784,
      "不去": 6785,
      "说是": 6786,
      "一股": 6787,
      "指着": 6788,
      "南海": 6789,
      "又惊": 6790,
      "后面": 6791,
      "眼光": 6792,
      "红花": 6793,
      "做了": 6794,
      "寻常": 6795,
      "意思": 6796,
      "有何": 6797,
      "得他": 6798,
      "生平": 6799,
      "一块": 6800,
      "陆无双": 6801,
      "两银子": 6802,
      "是否": 6803,
      "老婆": 6804,
      "衣服": 6805,
      "其时": 6806,
      "杨逍": 6807,
      "那老者": 6808,
      "总舵主": 6809,
      "的道": 6810,
      "天地会": 6811,
      "大吃一惊": 6812,
      "吃了": 6813,
      "我和": 6814,
      "这句话": 6815,
      "这几句话": 6816,
      "大为": 6817,
      "白衣": 6818,
      "不许": 6819,
      "之色": 6820,
      "奶奶": 6821,
      "五岳": 6822,
      "害死": 6823,
      "悄悄": 6824,
      "目光": 6825,
      "海老公": 6826,
      "有了": 6827,
      "那小": 6828,
      "东方": 6829,
      "奇道": 6830,
      "显然": 6831,
      "定要": 6832,
      "峨嵋": 6833,
      "说到这里": 6834,
      "任我行": 6835,
      "半山": 6836,
      "发出": 6837,
      "清兵": 6838,
      "你也": 6839,
      "你可": 6840,
      "对他": 6841,
      "霎时": 6842,
      "向问": 6843,
      "早就": 6844,
      "向问天": 6845,
      "契丹": 6846,
      "却已": 6847,
      "得意": 6848,
      "明明": 6849,
      "经书": 6850,
      "超风": 6851,
      "客气": 6852,
      "菲青": 6853,
      "说来": 6854,
      "想不到": 6855,
      "我在": 6856,
      "担心": 6857,
      "陆菲青": 6858,
      "一剑": 6859,
      "八道": 6860,
      "公公": 6861,
      "到他": 6862,
      "是在": 6863,
      "家伙": 6864,
      "汉人": 6865,
      "说过": 6866,
      "这老": 6867,
      "了三": 6868,
      "无礼": 6869,
      "苗人凤": 6870,
      "年轻": 6871,
      "游坦": 6872,
      "沅芷": 6873,
      "一听": 6874,
      "下山": 6875,
      "相公": 6876,
      "主人": 6877,
      "手上": 6878,
      "游坦之": 6879,
      "一下": 6880,
      "也都": 6881,
      "梅超风": 6882,
      "要紧": 6883,
      "众位": 6884,
      "脑袋": 6885,
      "那可": 6886,
      "妻子": 6887,
      "身形": 6888,
      "怎会": 6889,
      "一灯": 6890,
      "听她": 6891,
      "李沅芷": 6892,
      "罢了": 6893,
      "实是": 6894,
      "有点": 6895,
      "而已": 6896,
      "规矩": 6897,
      "又惊又": 6898,
      "地里": 6899,
      "真经": 6900,
      "你别": 6901,
      "不久": 6902,
      "大厅": 6903,
      "尚未": 6904,
      "志敬": 6905,
      "也就": 6906,
      "庄主": 6907,
      "赵半山": 6908,
      "五人": 6909,
      "才是": 6910,
      "氏兄弟": 6911,
      "你瞧": 6912,
      "对我": 6913,
      "然不": 6914,
      "只盼": 6915,
      "小弟": 6916,
      "甚为": 6917,
      "喇嘛": 6918,
      "等人": 6919,
      "胡说八道": 6920,
      "不上": 6921,
      "之心": 6922,
      "将来": 6923,
      "赵志敬": 6924,
      "也好": 6925,
      "待得": 6926,
      "什么事": 6927,
      "下手": 6928,
      "连连": 6929,
      "冷禅": 6930,
      "属下": 6931,
      "左冷禅": 6932,
      "春秋": 6933,
      "也不会": 6934,
      "从此": 6935,
      "武艺": 6936,
      "段誉道": 6937,
      "杨康": 6938,
      "镖局": 6939,
      "青城": 6940,
      "红花会": 6941,
      "一样": 6942,
      "真气": 6943,
      "鳌拜": 6944,
      "桃花岛": 6945,
      "生气": 6946,
      "这许多": 6947,
      "公孙": 6948,
      "回答": 6949,
      "鳄神": 6950,
      "陈家洛道": 6951,
      "不多时": 6952,
      "从未": 6953,
      "妈的": 6954,
      "胡子": 6955,
      "南海鳄神": 6956,
      "之力": 6957,
      "克塽": 6958,
      "本门": 6959,
      "再来": 6960,
      "毒手": 6961,
      "之情": 6962,
      "住他": 6963,
      "血刀": 6964,
      "四名": 6965,
      "大汗": 6966,
      "更是": 6967,
      "看得": 6968,
      "糊涂": 6969,
      "一生": 6970,
      "三位": 6971,
      "头发": 6972,
      "干净": 6973,
      "的了": 6974,
      "而行": 6975,
      "门下": 6976,
      "近南": 6977,
      "郑克塽": 6978,
      "若不": 6979,
      "下马": 6980,
      "永远": 6981,
      "陈近南": 6982,
      "伤了": 6983,
      "哼了一声": 6984,
      "抵挡": 6985,
      "行礼": 6986,
      "别人": 6987,
      "想来": 6988,
      "文秀": 6989,
      "逃走": 6990,
      "不定": 6991,
      "十年": 6992,
      "紫衣": 6993,
      "刀法": 6994,
      "要杀": 6995,
      "那里": 6996,
      "伯伯": 6997,
      "千万": 6998,
      "然而": 6999,
      "钟灵": 7000,
      "武士": 7001,
      "都已": 7002,
      "了半": 7003,
      "数百": 7004,
      "此处": 7005,
      "低头": 7006,
      "到处": 7007,
      "所以": 7008,
      "叫化": 7009,
      "奔到": 7010,
      "张三丰": 7011,
      "丁春秋": 7012,
      "动弹": 7013,
      "客店": 7014,
      "的情": 7015,
      "相貌": 7016,
      "镖头": 7017,
      "门口": 7018,
      "最好": 7019,
      "老头": 7020,
      "剑尖": 7021,
      "这些人": 7022,
      "到得": 7023,
      "微笑": 7024,
      "跟你说": 7025,
      "不便": 7026,
      "了下去": 7027,
      "拔出": 7028,
      "若非": 7029,
      "中人": 7030,
      "举起": 7031,
      "喝酒": 7032,
      "然后": 7033,
      "丁珰": 7034,
      "剑谱": 7035,
      "竟然": 7036,
      "裘千仞": 7037,
      "万剑": 7038,
      "剑招": 7039,
      "大师哥": 7040,
      "自行": 7041,
      "一言": 7042,
      "力气": 7043,
      "颇有": 7044,
      "光明": 7045,
      "嘻嘻": 7046,
      "接着": 7047,
      "李文秀": 7048,
      "脾气": 7049,
      "袁紫衣": 7050,
      "师娘": 7051,
      "正自": 7052,
      "突然之间": 7053,
      "也有": 7054,
      "定然": 7055,
      "得知": 7056,
      "身材": 7057,
      "小师妹": 7058,
      "一口": 7059,
      "包不同": 7060,
      "只因": 7061,
      "右掌": 7062,
      "险些": 7063,
      "一指": 7064,
      "和我": 7065,
      "回过": 7066,
      "大半": 7067,
      "毫不": 7068,
      "眼中": 7069,
      "避开": 7070,
      "向西": 7071,
      "均想": 7072,
      "我来": 7073,
      "颇为": 7074,
      "好笑": 7075,
      "将我": 7076,
      "施展": 7077,
      "记得": 7078,
      "顷刻": 7079,
      "号令": 7080,
      "喜道": 7081,
      "灭绝": 7082,
      "言道": 7083,
      "这一次": 7084,
      "不但": 7085,
      "不明": 7086,
      "伤心": 7087,
      "全是": 7088,
      "心念": 7089,
      "是了": 7090,
      "精神": 7091,
      "阁下": 7092,
      "不大": 7093,
      "两步": 7094,
      "行事": 7095,
      "冷冷地道": 7096,
      "书生": 7097,
      "另有": 7098,
      "手足": 7099,
      "瞧得": 7100,
      "吉思": 7101,
      "成吉思": 7102,
      "未免": 7103,
      "解开": 7104,
      "高兴": 7105,
      "无可": 7106,
      "成吉思汗": 7107,
      "光闪": 7108,
      "抱着": 7109,
      "颤声道": 7110,
      "而起": 7111,
      "僧人": 7112,
      "白万剑": 7113,
      "要我": 7114,
      "了她": 7115,
      "派人": 7116,
      "着实": 7117,
      "十多": 7118,
      "既然": 7119,
      "幸好": 7120,
      "水笙": 7121,
      "郡主": 7122,
      "在一旁": 7123,
      "不着": 7124,
      "便有": 7125,
      "相见": 7126,
      "西夏": 7127,
      "豪杰": 7128,
      "一团": 7129,
      "不自": 7130,
      "你又": 7131,
      "岂知": 7132,
      "该当": 7133,
      "呼吸": 7134,
      "脚下": 7135,
      "了一阵": 7136,
      "二娘": 7137,
      "他老人家": 7138,
      "山洞": 7139,
      "故意": 7140,
      "日子": 7141,
      "说起": 7142,
      "不怕": 7143,
      "仙道": 7144,
      "外面": 7145,
      "打开": 7146,
      "星宿": 7147,
      "一件": 7148,
      "似是": 7149,
      "惊呼": 7150,
      "此后": 7151,
      "遇到": 7152,
      "你就": 7153,
      "大爷": 7154,
      "何处": 7155,
      "将这": 7156,
      "倒在地": 7157,
      "是不": 7158,
      "相距": 7159,
      "高强": 7160,
      "一一": 7161,
      "到来": 7162,
      "女人": 7163,
      "忘了": 7164,
      "放下": 7165,
      "方怡": 7166,
      "识得": 7167,
      "远处": 7168,
      "右臂": 7169,
      "尼姑": 7170,
      "显得": 7171,
      "英雄好汉": 7172,
      "出口": 7173,
      "岂能": 7174,
      "灭绝师太": 7175,
      "不答": 7176,
      "他二人": 7177,
      "明知": 7178,
      "率领": 7179,
      "金蛇": 7180,
      "的功夫": 7181,
      "原来是": 7182,
      "一切": 7183,
      "一红": 7184,
      "你怎么": 7185,
      "快快": 7186,
      "方证": 7187,
      "大了": 7188,
      "夫妻": 7189,
      "心意": 7190,
      "不懂": 7191,
      "别说": 7192,
      "双臂": 7193,
      "输了": 7194,
      "金轮": 7195,
      "俯身": 7196,
      "望去": 7197,
      "桃谷": 7198,
      "体内": 7199,
      "坐下": 7200,
      "不绝": 7201,
      "圈子": 7202,
      "在旁": 7203,
      "声说道": 7204,
      "不知如何": 7205,
      "一番": 7206,
      "也要": 7207,
      "凝神": 7208,
      "声中": 7209,
      "岛主": 7210,
      "怀里": 7211,
      "擒拿": 7212,
      "乃是": 7213,
      "双眼": 7214,
      "宝刀": 7215,
      "用意": 7216,
      "诧异": 7217,
      "这话": 7218,
      "金花": 7219,
      "香香": 7220,
      "宫女": 7221,
      "啪的一声": 7222,
      "快步": 7223,
      "那少年": 7224,
      "仲英": 7225,
      "周仲英": 7226,
      "没法": 7227,
      "那女子": 7228,
      "转念": 7229,
      "香香公主": 7230,
      "袁承志道": 7231,
      "有时": 7232,
      "至于": 7233,
      "茅十八": 7234,
      "衣袖": 7235,
      "他妈的": 7236,
      "十六": 7237,
      "没人": 7238,
      "一根": 7239,
      "大大": 7240,
      "不说": 7241,
      "两只": 7242,
      "又是一": 7243,
      "已有": 7244,
      "来啦": 7245,
      "亲兵": 7246,
      "你师父": 7247,
      "情势": 7248,
      "在大": 7249,
      "奔出": 7250,
      "过了一会": 7251,
      "随手": 7252,
      "完颜洪": 7253,
      "决不能": 7254,
      "半分": 7255,
      "双方": 7256,
      "家的": 7257,
      "恭敬": 7258,
      "疑心": 7259,
      "相斗": 7260,
      "而死": 7261,
      "莲舟": 7262,
      "认得": 7263,
      "一场": 7264,
      "小可": 7265,
      "徒儿": 7266,
      "戚芳": 7267,
      "更无": 7268,
      "那便": 7269,
      "也不是": 7270,
      "不断": 7271,
      "些什么": 7272,
      "蓉儿": 7273,
      "面目": 7274,
      "一百": 7275,
      "不足": 7276,
      "几句": 7277,
      "双足": 7278,
      "好手": 7279,
      "左臂": 7280,
      "手法": 7281,
      "高明": 7282,
      "不觉": 7283,
      "向她": 7284,
      "马上": 7285,
      "令人": 7286,
      "春花": 7287,
      "美貌": 7288,
      "伤口": 7289,
      "去找": 7290,
      "发觉": 7291,
      "应道": 7292,
      "真正": 7293,
      "道士": 7294,
      "俞莲舟": 7295,
      "反手": 7296,
      "小昭": 7297,
      "了去": 7298,
      "敌手": 7299,
      "沧海": 7300,
      "的名": 7301,
      "上山": 7302,
      "你想": 7303,
      "拾起": 7304,
      "洪教主": 7305,
      "重阳": 7306,
      "必定": 7307,
      "掌法": 7308,
      "这可": 7309,
      "九阴": 7310,
      "交给": 7311,
      "亲自": 7312,
      "便已": 7313,
      "待我": 7314,
      "今晚": 7315,
      "余沧海": 7316,
      "向外": 7317,
      "尽皆": 7318,
      "石壁": 7319,
      "非同": 7320,
      "武当派": 7321,
      "找到": 7322,
      "时分": 7323,
      "中有": 7324,
      "休息": 7325,
      "卫士": 7326,
      "变化": 7327,
      "岳夫人": 7328,
      "真人": 7329,
      "纵马": 7330,
      "这就": 7331,
      "阿碧": 7332,
      "全然": 7333,
      "我又": 7334,
      "谷主": 7335,
      "运气": 7336,
      "不理": 7337,
      "冷笑": 7338,
      "断了": 7339,
      "传来": 7340,
      "但觉": 7341,
      "待要": 7342,
      "忽地": 7343,
      "欺侮": 7344,
      "丛中": 7345,
      "是要": 7346,
      "沐剑": 7347,
      "高僧": 7348,
      "万里": 7349,
      "不想": 7350,
      "六人": 7351,
      "后心": 7352,
      "忽见": 7353,
      "绿萼": 7354,
      "这种": 7355,
      "便将": 7356,
      "几步": 7357,
      "淡淡": 7358,
      "破绽": 7359,
      "身穿": 7360,
      "初时": 7361,
      "在自己": 7362,
      "已将": 7363,
      "并肩": 7364,
      "延庆": 7365,
      "摇了": 7366,
      "纵然": 7367,
      "见识": 7368,
      "只见他": 7369,
      "三哥": 7370,
      "乌龟": 7371,
      "你再": 7372,
      "站着": 7373,
      "落地": 7374,
      "铁木": 7375,
      "顽童": 7376,
      "之地": 7377,
      "又问": 7378,
      "山上": 7379,
      "师兄弟": 7380,
      "比之": 7381,
      "犹如": 7382,
      "瞧去": 7383,
      "雪山派": 7384,
      "马春花": 7385,
      "不败": 7386,
      "尸身": 7387,
      "跪下": 7388,
      "太过": 7389,
      "好人": 7390,
      "得好": 7391,
      "点点头": 7392,
      "留下": 7393,
      "丁典": 7394,
      "我想": 7395,
      "韦小宝笑道": 7396,
      "轻轻一": 7397,
      "你在": 7398,
      "已给": 7399,
      "盟主": 7400,
      "中年": 7401,
      "保定": 7402,
      "朱聪": 7403,
      "正好": 7404,
      "眉头": 7405,
      "莫非": 7406,
      "道理": 7407,
      "陡然": 7408,
      "人之": 7409,
      "你快": 7410,
      "毕竟": 7411,
      "的那": 7412,
      "祖师": 7413,
      "五个": 7414,
      "经过": 7415,
      "这么说": 7416,
      "全真教": 7417,
      "一日": 7418,
      "大门": 7419,
      "她们": 7420,
      "心上": 7421,
      "清清楚": 7422,
      "直到": 7423,
      "竟会": 7424,
      "老太": 7425,
      "跟随": 7426,
      "身法": 7427,
      "清清楚楚": 7428,
      "子道": 7429,
      "便宜": 7430,
      "力道": 7431,
      "屋顶": 7432,
      "拱手": 7433,
      "话来": 7434,
      "上下": 7435,
      "丫头": 7436,
      "何等": 7437,
      "大丈夫": 7438,
      "岛上": 7439,
      "念头": 7440,
      "接连": 7441,
      "疼痛": 7442,
      "这两个": 7443,
      "凶险": 7444,
      "另一个": 7445,
      "无数": 7446,
      "瑛姑": 7447,
      "完颜洪烈": 7448,
      "呼呼": 7449,
      "宫中": 7450,
      "昆仑": 7451,
      "上马": 7452,
      "以及": 7453,
      "大名": 7454,
      "投降": 7455,
      "程英": 7456,
      "走去": 7457,
      "知道了": 7458,
      "但听得": 7459,
      "凌厉": 7460,
      "此言": 7461,
      "震山": 7462,
      "哈哈一笑": 7463,
      "为他": 7464,
      "你爹爹": 7465,
      "自成": 7466,
      "带着": 7467,
      "心神": 7468,
      "数丈": 7469,
      "砰的一声": 7470,
      "你还": 7471,
      "必是": 7472,
      "要他": 7473,
      "设法": 7474,
      "三招": 7475,
      "林中": 7476,
      "神雕": 7477,
      "身受": 7478,
      "非同小可": 7479,
      "不死": 7480,
      "冲虚": 7481,
      "拉着": 7482,
      "拿起": 7483,
      "次日": 7484,
      "连声": 7485,
      "一柄": 7486,
      "了过来": 7487,
      "危急": 7488,
      "从前": 7489,
      "伤势": 7490,
      "心惊": 7491,
      "没什么": 7492,
      "身在": 7493,
      "那女郎": 7494,
      "金花婆婆": 7495,
      "不信": 7496,
      "再加": 7497,
      "恩师": 7498,
      "桂子": 7499,
      "相交": 7500,
      "神龙": 7501,
      "过得": 7502,
      "当真是": 7503,
      "保定帝": 7504,
      "一口气": 7505,
      "不语": 7506,
      "却不知": 7507,
      "固然": 7508,
      "忽听": 7509,
      "恶人": 7510,
      "无尘": 7511,
      "烟客": 7512,
      "谢烟客": 7513,
      "二哥": 7514,
      "岂不": 7515,
      "辟邪": 7516,
      "一晃": 7517,
      "家人": 7518,
      "念慈": 7519,
      "总管": 7520,
      "推开": 7521,
      "服侍": 7522,
      "穆念慈": 7523,
      "脱身": 7524,
      "走吧": 7525,
      "云南": 7526,
      "大石": 7527,
      "屠龙": 7528,
      "毒药": 7529,
      "一会儿": 7530,
      "一行": 7531,
      "十五": 7532,
      "声大": 7533,
      "我瞧": 7534,
      "福康": 7535,
      "赶到": 7536,
      "不易": 7537,
      "取出一": 7538,
      "抬头": 7539,
      "火把": 7540,
      "而且": 7541,
      "福康安": 7542,
      "一句话": 7543,
      "不出来": 7544,
      "施主": 7545,
      "顺手": 7546,
      "转头向": 7547,
      "又有什么": 7548,
      "委实": 7549,
      "朝廷": 7550,
      "便在此时": 7551,
      "铁木真": 7552,
      "了不起": 7553,
      "剧痛": 7554,
      "自当": 7555,
      "霍都": 7556,
      "不下": 7557,
      "全力": 7558,
      "奈何": 7559,
      "杀我": 7560,
      "老爷子": 7561,
      "丁不四": 7562,
      "万震山": 7563,
      "使出": 7564,
      "短剑": 7565,
      "虽是": 7566,
      "躲在": 7567,
      "妙极": 7568,
      "床上": 7569,
      "昨晚": 7570,
      "望了一眼": 7571,
      "那边": 7572,
      "门户": 7573,
      "阿九": 7574,
      "当当": 7575,
      "必有": 7576,
      "白衣尼": 7577,
      "摇了摇头": 7578,
      "一来": 7579,
      "与他": 7580,
      "察看": 7581,
      "小腹": 7582,
      "左足": 7583,
      "闵柔": 7584,
      "阿绣": 7585,
      "从怀中": 7586,
      "她是": 7587,
      "见那": 7588,
      "追赶": 7589,
      "七人": 7590,
      "传授": 7591,
      "口道": 7592,
      "四字": 7593,
      "我没": 7594,
      "打了": 7595,
      "这一掌": 7596,
      "不停": 7597,
      "哪有": 7598,
      "抢上": 7599,
      "自知": 7600,
      "出来的": 7601,
      "从来没": 7602,
      "中所": 7603,
      "却也不": 7604,
      "待会": 7605,
      "朗声道": 7606,
      "本领": 7607,
      "剧毒": 7608,
      "君子": 7609,
      "男女": 7610,
      "白马": 7611,
      "通红": 7612,
      "以致": 7613,
      "得住": 7614,
      "性子": 7615,
      "牢牢": 7616,
      "退开": 7617,
      "裘千尺": 7618,
      "桃谷六": 7619,
      "你如": 7620,
      "商量": 7621,
      "岂不是": 7622,
      "本派": 7623,
      "自幼": 7624,
      "襄阳": 7625,
      "马夫人": 7626,
      "了几下": 7627,
      "一座": 7628,
      "尚有": 7629,
      "路上": 7630,
      "不来": 7631,
      "不识": 7632,
      "去吧": 7633,
      "发作": 7634,
      "年前": 7635,
      "并未": 7636,
      "当世": 7637,
      "旁观": 7638,
      "老衲": 7639,
      "而上": 7640,
      "过不多时": 7641,
      "胡斐道": 7642,
      "东方不败": 7643,
      "便可": 7644,
      "兵器": 7645,
      "离开": 7646,
      "绝技": 7647,
      "黑白": 7648,
      "伸手去": 7649,
      "之法": 7650,
      "天南": 7651,
      "眼泪": 7652,
      "要去": 7653,
      "身手": 7654,
      "一次": 7655,
      "小僧": 7656,
      "小桂子": 7657,
      "开来": 7658,
      "打死": 7659,
      "无声": 7660,
      "李自成": 7661,
      "老人": 7662,
      "动弹不得": 7663,
      "不小": 7664,
      "事情": 7665,
      "侧身": 7666,
      "向左": 7667,
      "恒山": 7668,
      "招式": 7669,
      "眼下": 7670,
      "一看": 7671,
      "也无": 7672,
      "我也不": 7673,
      "数日": 7674,
      "出声": 7675,
      "另外": 7676,
      "定了": 7677,
      "而下": 7678,
      "那人道": 7679,
      "出神": 7680,
      "没了": 7681,
      "自在": 7682,
      "见到了": 7683,
      "讯息": 7684,
      "还能": 7685,
      "匹马": 7686,
      "坐着": 7687,
      "着了": 7688,
      "金轮国师": 7689,
      "外人": 7690,
      "抱拳": 7691,
      "救人": 7692,
      "狠狠": 7693,
      "老前辈": 7694,
      "说完": 7695,
      "里的": 7696,
      "众弟子": 7697,
      "你自己": 7698,
      "原是": 7699,
      "古墓": 7700,
      "摔倒": 7701,
      "今天": 7702,
      "四十": 7703,
      "在你": 7704,
      "个人": 7705,
      "军官": 7706,
      "手脚": 7707,
      "扬州": 7708,
      "飞出": 7709,
      "免得": 7710,
      "台湾": 7711,
      "嵩山派": 7712,
      "有余": 7713,
      "跃出": 7714,
      "那婆婆": 7715,
      "桃谷六仙": 7716,
      "之言": 7717,
      "出言": 7718,
      "挣扎": 7719,
      "晚上": 7720,
      "月光": 7721,
      "有如": 7722,
      "梁子": 7723,
      "物事": 7724,
      "腿上": 7725,
      "回过头来": 7726,
      "大王": 7727,
      "嵩山": 7728,
      "微一": 7729,
      "抬起": 7730,
      "难过": 7731,
      "完颜康": 7732,
      "两声": 7733,
      "伤人": 7734,
      "刺客": 7735,
      "半空": 7736,
      "小兄弟": 7737,
      "得上": 7738,
      "抱住": 7739,
      "梨亭": 7740,
      "看时": 7741,
      "竟没": 7742,
      "要你": 7743,
      "青年": 7744,
      "下面": 7745,
      "呆了": 7746,
      "归农": 7747,
      "有所": 7748,
      "父子": 7749,
      "跟她": 7750,
      "叫声": 7751,
      "坐骑": 7752,
      "对你": 7753,
      "平时": 7754,
      "拳脚": 7755,
      "施琅": 7756,
      "有几": 7757,
      "送了": 7758,
      "黄金": 7759,
      "拳法": 7760,
      "故事": 7761,
      "正中": 7762,
      "段延庆": 7763,
      "老顽童": 7764,
      "脱手": 7765,
      "一个个": 7766,
      "殷梨亭": 7767,
      "姓名": 7768,
      "韦香主": 7769,
      "的一响": 7770,
      "使的": 7771,
      "剑术": 7772,
      "半夜": 7773,
      "大功": 7774,
      "男人": 7775,
      "落下": 7776,
      "了一顿": 7777,
      "亲眼": 7778,
      "便向": 7779,
      "娘子": 7780,
      "带了": 7781,
      "怎生": 7782,
      "本教": 7783,
      "洞中": 7784,
      "行走": 7785,
      "过儿": 7786,
      "进了": 7787,
      "假装": 7788,
      "寺中": 7789,
      "杀他": 7790,
      "深厚": 7791,
      "见这": 7792,
      "不自禁": 7793,
      "一挥": 7794,
      "在山": 7795,
      "大大的": 7796,
      "应熊": 7797,
      "无力": 7798,
      "迅捷": 7799,
      "铁手": 7800,
      "高人": 7801,
      "九阴真经": 7802,
      "互相": 7803,
      "他又": 7804,
      "太极": 7805,
      "往他": 7806,
      "朗声说道": 7807,
      "黑衣": 7808,
      "也不用": 7809,
      "万圭": 7810,
      "个时辰": 7811,
      "修习": 7812,
      "厅上": 7813,
      "可不能": 7814,
      "呆呆": 7815,
      "哪一个": 7816,
      "之内": 7817,
      "吴应熊": 7818,
      "城中": 7819,
      "眼色": 7820,
      "请教": 7821,
      "青书": 7822,
      "令狐师兄": 7823,
      "一呆": 7824,
      "了些": 7825,
      "在后": 7826,
      "大臣": 7827,
      "当先": 7828,
      "的弟子": 7829,
      "蓦地里": 7830,
      "转眼": 7831,
      "那位": 7832,
      "风声": 7833,
      "不该": 7834,
      "但见他": 7835,
      "双腿": 7836,
      "史婆婆": 7837,
      "各自": 7838,
      "天色": 7839,
      "将下来": 7840,
      "极为": 7841,
      "潇湘": 7842,
      "语气": 7843,
      "刀剑": 7844,
      "喀喇": 7845,
      "将那": 7846,
      "来得": 7847,
      "谁都": 7848,
      "何铁手": 7849,
      "决不会": 7850,
      "只想": 7851,
      "孙仲": 7852,
      "拖雷": 7853,
      "紧紧": 7854,
      "公孙止": 7855,
      "不管": 7856,
      "尽是": 7857,
      "徒弟": 7858,
      "料到": 7859,
      "要害": 7860,
      "面子": 7861,
      "骰子": 7862,
      "使得": 7863,
      "倒也不": 7864,
      "容貌": 7865,
      "往往": 7866,
      "总算": 7867,
      "种种": 7868,
      "转过身来": 7869,
      "之道": 7870,
      "可不是": 7871,
      "和她": 7872,
      "在哪里": 7873,
      "小郡主": 7874,
      "急道": 7875,
      "教众": 7876,
      "消息": 7877,
      "着她": 7878,
      "胡一刀": 7879,
      "五岳剑": 7880,
      "上乘": 7881,
      "但想": 7882,
      "几乎": 7883,
      "去向": 7884,
      "另一": 7885,
      "叫人": 7886,
      "周颠": 7887,
      "奸贼": 7888,
      "对她": 7889,
      "平西": 7890,
      "极是": 7891,
      "的所在": 7892,
      "练功": 7893,
      "若是": 7894,
      "谷中": 7895,
      "又惊又喜": 7896,
      "三字": 7897,
      "反正": 7898,
      "四周": 7899,
      "我有": 7900,
      "房门": 7901,
      "才好": 7902,
      "抓住了": 7903,
      "来历": 7904,
      "温方": 7905,
      "狼狈": 7906,
      "造反": 7907,
      "鼻子": 7908,
      "说不出的": 7909,
      "沐剑屏": 7910,
      "一顿": 7911,
      "之一": 7912,
      "于他": 7913,
      "仍是": 7914,
      "叫什么": 7915,
      "向东": 7916,
      "向我": 7917,
      "啪啪": 7918,
      "好处": 7919,
      "展开": 7920,
      "惭愧": 7921,
      "毒物": 7922,
      "你既": 7923,
      "大胆": 7924,
      "平平": 7925,
      "成为": 7926,
      "每一": 7927,
      "田归农": 7928,
      "长的": 7929,
      "不敢再": 7930,
      "耶律齐": 7931,
      "两条": 7932,
      "拍手": 7933,
      "放开": 7934,
      "武官": 7935,
      "段公子": 7936,
      "的模样": 7937,
      "中一": 7938,
      "乌老大": 7939,
      "保护": 7940,
      "六怪": 7941,
      "如果": 7942,
      "打架": 7943,
      "那大汉": 7944,
      "二来": 7945,
      "冠英": 7946,
      "岱岩": 7947,
      "胡青": 7948,
      "表哥": 7949,
      "便能": 7950,
      "呼叫": 7951,
      "开口": 7952,
      "打狗": 7953,
      "数招": 7954,
      "无耻": 7955,
      "诡计": 7956,
      "跃上": 7957,
      "软鞭": 7958,
      "过的": 7959,
      "迟疑": 7960,
      "金银": 7961,
      "马蹄": 7962,
      "怎么办": 7963,
      "不服": 7964,
      "千秋": 7965,
      "哪一": 7966,
      "娃娃": 7967,
      "开眼": 7968,
      "心知": 7969,
      "肚子": 7970,
      "踏步": 7971,
      "心念一动": 7972,
      "三名": 7973,
      "中毒": 7974,
      "前后": 7975,
      "拂尘": 7976,
      "绳索": 7977,
      "苏普": 7978,
      "菩萨": 7979,
      "小龙女道": 7980,
      "得罪了": 7981,
      "出门": 7982,
      "志丙": 7983,
      "拉住": 7984,
      "暗想": 7985,
      "泪水": 7986,
      "舌头": 7987,
      "义气": 7988,
      "之命": 7989,
      "倒退": 7990,
      "内劲": 7991,
      "几下": 7992,
      "出现": 7993,
      "秘密": 7994,
      "胡青牛": 7995,
      "不平": 7996,
      "傻姑": 7997,
      "凝视": 7998,
      "几名": 7999,
      "变色": 8000,
      "定逸": 8001,
      "海中": 8002,
      "玉女": 8003,
      "甄志丙": 8004,
      "的老": 8005,
      "窗外": 8006,
      "范遥": 8007,
      "落在": 8008,
      "连虎": 8009,
      "难得": 8010,
      "放在心上": 8011,
      "今后": 8012,
      "刘正": 8013,
      "回人": 8014,
      "处一": 8015,
      "大宋": 8016,
      "宋青书": 8017,
      "对准": 8018,
      "恼怒": 8019,
      "铁链": 8020,
      "骑马": 8021,
      "刘正风": 8022,
      "不行": 8023,
      "不顾": 8024,
      "你来": 8025,
      "名叫": 8026,
      "听见": 8027,
      "四哥": 8028,
      "彭连虎": 8029,
      "恭恭敬": 8030,
      "扶起": 8031,
      "陆冠英": 8032,
      "恭恭敬敬": 8033,
      "仔细": 8034,
      "同门": 8035,
      "外号": 8036,
      "惊道": 8037,
      "暗自": 8038,
      "相会": 8039,
      "请问": 8040,
      "还礼": 8041,
      "一对": 8042,
      "你有": 8043,
      "俞岱岩": 8044,
      "宝树": 8045,
      "师徒": 8046,
      "怒气": 8047,
      "挺剑": 8048,
      "有趣": 8049,
      "火光": 8050,
      "马钰": 8051,
      "的一声响": 8052,
      "石破天道": 8053,
      "青城派": 8054,
      "也未必": 8055,
      "大会": 8056,
      "招架": 8057,
      "无所": 8058,
      "死的": 8059,
      "而至": 8060,
      "让我": 8061,
      "余人": 8062,
      "向北": 8063,
      "思索": 8064,
      "没想到": 8065,
      "王夫人": 8066,
      "筋斗": 8067,
      "额头": 8068,
      "万分": 8069,
      "了吧": 8070,
      "却见": 8071,
      "听着": 8072,
      "四位": 8073,
      "相对": 8074,
      "联手": 8075,
      "遇上": 8076,
      "都说": 8077,
      "也不过": 8078,
      "就是了": 8079,
      "上官": 8080,
      "了的": 8081,
      "二十余": 8082,
      "五十": 8083,
      "八卦": 8084,
      "木桑": 8085,
      "诸般": 8086,
      "赶来": 8087,
      "一人道": 8088,
      "你了": 8089,
      "偏偏": 8090,
      "又怎": 8091,
      "已久": 8092,
      "已是": 8093,
      "教的": 8094,
      "罗汉": 8095,
      "峨嵋派": 8096,
      "得一": 8097,
      "焦急": 8098,
      "起身来": 8099,
      "自然是": 8100,
      "他见": 8101,
      "厉声道": 8102,
      "已在": 8103,
      "的心": 8104,
      "神态": 8105,
      "翻身": 8106,
      "跃开": 8107,
      "亲王": 8108,
      "倒是": 8109,
      "内息": 8110,
      "呼喝": 8111,
      "就要": 8112,
      "既是": 8113,
      "满洲": 8114,
      "笔翁": 8115,
      "经脉": 8116,
      "还在": 8117,
      "还要": 8118,
      "的人物": 8119,
      "云中": 8120,
      "他武功": 8121,
      "他心中": 8122,
      "双剑": 8123,
      "咳嗽": 8124,
      "树枝": 8125,
      "风波": 8126,
      "徐天川": 8127,
      "仍然": 8128,
      "你怎": 8129,
      "先行": 8130,
      "婴儿": 8131,
      "对自己": 8132,
      "底下": 8133,
      "或许": 8134,
      "杨铁": 8135,
      "武三": 8136,
      "海石": 8137,
      "知是": 8138,
      "这事": 8139,
      "如何能": 8140,
      "不算": 8141,
      "便走": 8142,
      "变成": 8143,
      "商议": 8144,
      "喝彩": 8145,
      "好啦": 8146,
      "好不好": 8147,
      "威力": 8148,
      "小姑娘": 8149,
      "痛得": 8150,
      "衣襟": 8151,
      "逍遥": 8152,
      "领教": 8153,
      "打狗棒": 8154,
      "之物": 8155,
      "以免": 8156,
      "势必": 8157,
      "嗤嗤": 8158,
      "家里": 8159,
      "将出来": 8160,
      "摇晃": 8161,
      "相互": 8162,
      "看到": 8163,
      "继续": 8164,
      "胖头陀": 8165,
      "韦一笑": 8166,
      "之士": 8167,
      "人多": 8168,
      "他虽": 8169,
      "凤天南": 8170,
      "合台": 8171,
      "想要": 8172,
      "贝海石": 8173,
      "高声": 8174,
      "不发": 8175,
      "写着": 8176,
      "吃饭": 8177,
      "天鹰": 8178,
      "明天": 8179,
      "明日": 8180,
      "逼得": 8181,
      "到哪里": 8182,
      "太冲": 8183,
      "安排": 8184,
      "支持": 8185,
      "无论": 8186,
      "柔声道": 8187,
      "热闹": 8188,
      "竟不": 8189,
      "笑容": 8190,
      "花铁": 8191,
      "人道": 8192,
      "何太冲": 8193,
      "向那": 8194,
      "大树": 8195,
      "好啊": 8196,
      "尸体": 8197,
      "竹棒": 8198,
      "糟糕": 8199,
      "也没什么": 8200,
      "奶奶的": 8201,
      "就在": 8202,
      "感到": 8203,
      "耳边": 8204,
      "霎时之间": 8205,
      "也必": 8206,
      "仰天": 8207,
      "想是": 8208,
      "若有": 8209,
      "还道": 8210,
      "酒杯": 8211,
      "了么": 8212,
      "便想": 8213,
      "几时": 8214,
      "向着": 8215,
      "宁可": 8216,
      "成功": 8217,
      "法门": 8218,
      "落入": 8219,
      "道上": 8220,
      "醒转": 8221,
      "里面": 8222,
      "重大": 8223,
      "他们的": 8224,
      "霎时间": 8225,
      "不像": 8226,
      "也真": 8227,
      "乱跳": 8228,
      "他要": 8229,
      "决意": 8230,
      "右足": 8231,
      "对不起": 8232,
      "忍耐": 8233,
      "我再": 8234,
      "无穷": 8235,
      "立刻": 8236,
      "老叫化": 8237,
      "西域": 8238,
      "走向": 8239,
      "虚竹道": 8240,
      "武三通": 8241,
      "徐铮": 8242,
      "救命": 8243,
      "铁掌": 8244,
      "震南": 8245,
      "这一剑": 8246,
      "这时候": 8247,
      "大声叫道": 8248,
      "人人都": 8249,
      "潇湘子": 8250,
      "不做": 8251,
      "为师": 8252,
      "又不是": 8253,
      "叔叔": 8254,
      "各处": 8255,
      "大骂": 8256,
      "好极": 8257,
      "打个": 8258,
      "本已": 8259,
      "林震南": 8260,
      "素来": 8261,
      "那一": 8262,
      "靖哥哥": 8263,
      "什么都": 8264,
      "屠龙刀": 8265,
      "不打": 8266,
      "之所": 8267,
      "便去": 8268,
      "几次": 8269,
      "危险": 8270,
      "宫里": 8271,
      "小二": 8272,
      "得过": 8273,
      "成昆": 8274,
      "抱起": 8275,
      "救了": 8276,
      "王处一": 8277,
      "颈中": 8278,
      "这一来": 8279,
      "无论如何": 8280,
      "圣火": 8281,
      "在江湖上": 8282,
      "意料": 8283,
      "暗算": 8284,
      "沉沉": 8285,
      "王子": 8286,
      "精妙": 8287,
      "这姓": 8288,
      "长乐": 8289,
      "闻到": 8290,
      "龙门": 8291,
      "不明白": 8292,
      "左肩": 8293,
      "干系": 8294,
      "洪夫人": 8295,
      "胡闹": 8296,
      "花铁干": 8297,
      "不尽": 8298,
      "不忍": 8299,
      "不悔": 8300,
      "书房": 8301,
      "以前": 8302,
      "对头": 8303,
      "很是": 8304,
      "我只": 8305,
      "文字": 8306,
      "晃动": 8307,
      "极大": 8308,
      "续道": 8309,
      "蛛儿": 8310,
      "说不得": 8311,
      "一拍": 8312,
      "两字": 8313,
      "之辈": 8314,
      "仇人": 8315,
      "到后来": 8316,
      "勉强": 8317,
      "圆圆": 8318,
      "声势": 8319,
      "我不是": 8320,
      "挥出": 8321,
      "晓芙": 8322,
      "走上": 8323,
      "一家": 8324,
      "之势": 8325,
      "再好": 8326,
      "奔去": 8327,
      "玄慈": 8328,
      "生的": 8329,
      "碰到": 8330,
      "随着": 8331,
      "难当": 8332,
      "在这儿": 8333,
      "身受重伤": 8334,
      "三分": 8335,
      "下一": 8336,
      "不意": 8337,
      "使者": 8338,
      "判官": 8339,
      "北方": 8340,
      "皇后": 8341,
      "脸颊": 8342,
      "让她": 8343,
      "身份": 8344,
      "了几个": 8345,
      "九阳": 8346,
      "人影": 8347,
      "你没": 8348,
      "十四": 8349,
      "咽喉": 8350,
      "好意": 8351,
      "德诺": 8352,
      "站立": 8353,
      "自称": 8354,
      "说他": 8355,
      "五岳剑派": 8356,
      "但这": 8357,
      "刺去": 8358,
      "剑柄": 8359,
      "包袱": 8360,
      "大夫": 8361,
      "宛儿": 8362,
      "手持": 8363,
      "死在": 8364,
      "温青": 8365,
      "问你": 8366,
      "只见她": 8367,
      "梁子翁": 8368,
      "长乐帮": 8369,
      "修为": 8370,
      "动静": 8371,
      "半截": 8372,
      "发现": 8373,
      "可怜": 8374,
      "喃喃": 8375,
      "屋中": 8376,
      "拿了": 8377,
      "救我": 8378,
      "有意": 8379,
      "玄难": 8380,
      "甚多": 8381,
      "皇爷": 8382,
      "算是": 8383,
      "说我": 8384,
      "运劲": 8385,
      "那汉子": 8386,
      "了一步": 8387,
      "四下里": 8388,
      "一颗": 8389,
      "之位": 8390,
      "伏在": 8391,
      "众兄弟": 8392,
      "修文": 8393,
      "发抖": 8394,
      "吓了一": 8395,
      "坏人": 8396,
      "大军": 8397,
      "山峰": 8398,
      "格格": 8399,
      "知她": 8400,
      "绝情": 8401,
      "耳中": 8402,
      "退出": 8403,
      "门派": 8404,
      "云中鹤": 8405,
      "不妨": 8406,
      "他不": 8407,
      "千里": 8408,
      "向上": 8409,
      "哑巴": 8410,
      "回家": 8411,
      "在空中": 8412,
      "奋力": 8413,
      "已极": 8414,
      "时刻": 8415,
      "的名字": 8416,
      "着地": 8417,
      "笑嘻嘻": 8418,
      "脸上一红": 8419,
      "也只": 8420,
      "二百": 8421,
      "交情": 8422,
      "凌波": 8423,
      "多年": 8424,
      "当地": 8425,
      "忙问": 8426,
      "王剑": 8427,
      "纵声": 8428,
      "迎面": 8429,
      "这条": 8430,
      "片刻间": 8431,
      "得多了": 8432,
      "上面": 8433,
      "他想": 8434,
      "八九": 8435,
      "劳德诺": 8436,
      "匆匆": 8437,
      "司马": 8438,
      "急奔": 8439,
      "无异": 8440,
      "有此": 8441,
      "王八": 8442,
      "着的": 8443,
      "瞧他": 8444,
      "胖子": 8445,
      "这两人": 8446,
      "不休": 8447,
      "便了": 8448,
      "入内": 8449,
      "办事": 8450,
      "商宝": 8451,
      "围攻": 8452,
      "多隆": 8453,
      "天石": 8454,
      "我先": 8455,
      "手执": 8456,
      "方能": 8457,
      "空手": 8458,
      "胜海": 8459,
      "送到": 8460,
      "通天": 8461,
      "中土": 8462,
      "你先": 8463,
      "曹云": 8464,
      "杀死": 8465,
      "武修文": 8466,
      "耳朵": 8467,
      "那书生": 8468,
      "门人": 8469,
      "问起": 8470,
      "额图": 8471,
      "武功高强": 8472,
      "抬起头来": 8473,
      "不作": 8474,
      "之至": 8475,
      "你好": 8476,
      "你我": 8477,
      "几天": 8478,
      "只剩": 8479,
      "同去": 8480,
      "婊子": 8481,
      "巴天石": 8482,
      "早知": 8483,
      "王姑娘": 8484,
      "索额图": 8485,
      "练成": 8486,
      "试试": 8487,
      "这孩子": 8488,
      "慕容公子": 8489,
      "商宝震": 8490,
      "不安": 8491,
      "又要": 8492,
      "司徒": 8493,
      "哪一位": 8494,
      "有脚": 8495,
      "沉重": 8496,
      "真相": 8497,
      "禅师": 8498,
      "纪晓芙": 8499,
      "远桥": 8500,
      "隔了": 8501,
      "面相": 8502,
      "黑暗中": 8503,
      "不能再": 8504,
      "不相同": 8505,
      "之余": 8506,
      "冤枉": 8507,
      "却没": 8508,
      "快去": 8509,
      "掷出": 8510,
      "放了": 8511,
      "杀的": 8512,
      "看了": 8513,
      "足道": 8514,
      "迅速": 8515,
      "大理国": 8516,
      "一些": 8517,
      "一瞥": 8518,
      "之旁": 8519,
      "交集": 8520,
      "以来": 8521,
      "卑职": 8522,
      "取胜": 8523,
      "客人": 8524,
      "尼摩": 8525,
      "店小二": 8526,
      "待他": 8527,
      "心砚": 8528,
      "洪胜海": 8529,
      "皱眉": 8530,
      "算得": 8531,
      "给他们": 8532,
      "胆子": 8533,
      "金标": 8534,
      "门的": 8535,
      "一出": 8536,
      "一拳": 8537,
      "个字": 8538,
      "喝了": 8539,
      "声息": 8540,
      "小妹": 8541,
      "尸首": 8542,
      "岩石": 8543,
      "眼珠": 8544,
      "耳光": 8545,
      "若兰": 8546,
      "这三": 8547,
      "金面": 8548,
      "顾金标": 8549,
      "韦小宝心想": 8550,
      "众侍卫": 8551,
      "使劲": 8552,
      "咱俩": 8553,
      "好的": 8554,
      "室中": 8555,
      "把他": 8556,
      "暂且": 8557,
      "秋水": 8558,
      "细细": 8559,
      "走得": 8560,
      "高峰": 8561,
      "鲁有脚": 8562,
      "杨铁心": 8563,
      "一身": 8564,
      "卑鄙": 8565,
      "岁的": 8566,
      "手势": 8567,
      "抢到": 8568,
      "根手指": 8569,
      "都有": 8570,
      "闯王": 8571,
      "什么人": 8572,
      "大叫一声": 8573,
      "数十年": 8574,
      "圣火令": 8575,
      "吓了一跳": 8576,
      "尼摩星": 8577,
      "不妙": 8578,
      "他知": 8579,
      "十三": 8580,
      "卫春": 8581,
      "圆真": 8582,
      "好吧": 8583,
      "威风": 8584,
      "宋远桥": 8585,
      "岁年纪": 8586,
      "恶贼": 8587,
      "红马": 8588,
      "苗若兰": 8589,
      "辈子": 8590,
      "钢杖": 8591,
      "飞身": 8592,
      "这番话": 8593,
      "不开": 8594,
      "不戒": 8595,
      "但若": 8596,
      "到这里": 8597,
      "十几": 8598,
      "太阳": 8599,
      "招呼": 8600,
      "提防": 8601,
      "方位": 8602,
      "泄漏": 8603,
      "犹似": 8604,
      "的言语": 8605,
      "美丽": 8606,
      "而前": 8607,
      "葫芦": 8608,
      "避过": 8609,
      "骇然": 8610,
      "了一口": 8611,
      "上一步": 8612,
      "立时便": 8613,
      "丝毫不": 8614,
      "出于": 8615,
      "头颈": 8616,
      "害死了": 8617,
      "是何": 8618,
      "波斯": 8619,
      "盼望": 8620,
      "眼里": 8621,
      "美人": 8622,
      "说要": 8623,
      "还手": 8624,
      "长叹": 8625,
      "康熙道": 8626,
      "顷刻间": 8627,
      "卫春华": 8628,
      "万仇": 8629,
      "不通": 8630,
      "之徒": 8631,
      "乖乖": 8632,
      "人来": 8633,
      "出招": 8634,
      "商老太": 8635,
      "大喝": 8636,
      "威名": 8637,
      "心事": 8638,
      "快走": 8639,
      "本想": 8640,
      "迷糊": 8641,
      "青竹": 8642,
      "片刻之间": 8643,
      "也得": 8644,
      "你为什么": 8645,
      "华筝": 8646,
      "子柳": 8647,
      "快活": 8648,
      "打扮": 8649,
      "无意": 8650,
      "气息": 8651,
      "温柔": 8652,
      "而过": 8653,
      "跟他们": 8654,
      "长袍": 8655,
      "见到他": 8656,
      "一闪": 8657,
      "且慢": 8658,
      "四大": 8659,
      "安慰": 8660,
      "小船": 8661,
      "忽道": 8662,
      "拼命": 8663,
      "插入": 8664,
      "洪基": 8665,
      "深深": 8666,
      "破了": 8667,
      "鹿杖": 8668,
      "丁不三": 8669,
      "不胜": 8670,
      "不轻": 8671,
      "便似": 8672,
      "叶二娘": 8673,
      "大踏步": 8674,
      "将你": 8675,
      "惊惶": 8676,
      "掠过": 8677,
      "横扫": 8678,
      "瞧在": 8679,
      "瞧了一眼": 8680,
      "胜于": 8681,
      "船头": 8682,
      "起身": 8683,
      "金刚": 8684,
      "钟万仇": 8685,
      "食指": 8686,
      "众人都": 8687,
      "天下第一": 8688,
      "了几句": 8689,
      "意料之外": 8690,
      "一带": 8691,
      "丹臣": 8692,
      "可就": 8693,
      "帮众": 8694,
      "所未": 8695,
      "才知": 8696,
      "拿着": 8697,
      "朱子柳": 8698,
      "沐王府": 8699,
      "神剑": 8700,
      "苦头": 8701,
      "语音": 8702,
      "赞道": 8703,
      "了他的": 8704,
      "上前去": 8705,
      "多半是": 8706,
      "你便": 8707,
      "冷汗": 8708,
      "死人": 8709,
      "相信": 8710,
      "谁也不": 8711,
      "蒙古兵": 8712,
      "但她": 8713,
      "只可惜": 8714,
      "寨主": 8715,
      "抓起": 8716,
      "点儿": 8717,
      "第四": 8718,
      "飘飘": 8719,
      "天鹰教": 8720,
      "曹云奇": 8721,
      "不听": 8722,
      "从他": 8723,
      "克西": 8724,
      "其后": 8725,
      "功劳": 8726,
      "向下": 8727,
      "大是": 8728,
      "少侠": 8729,
      "并没": 8730,
      "找寻": 8731,
      "无量": 8732,
      "朱丹臣": 8733,
      "老祖": 8734,
      "观看": 8735,
      "抓住他": 8736,
      "岳灵珊道": 8737,
      "一大": 8738,
      "不等": 8739,
      "五行": 8740,
      "仪和": 8741,
      "壁上": 8742,
      "尹克西": 8743,
      "屁股": 8744,
      "张口": 8745,
      "瞧见": 8746,
      "绝无": 8747,
      "老三": 8748,
      "询问": 8749,
      "贫道": 8750,
      "金刀": 8751,
      "师父的": 8752,
      "乡下": 8753,
      "任何": 8754,
      "可别": 8755,
      "回身": 8756,
      "好朋友": 8757,
      "妇人": 8758,
      "尴尬": 8759,
      "怔怔": 8760,
      "打听": 8761,
      "猛地": 8762,
      "老实": 8763,
      "蜡烛": 8764,
      "顿了一顿": 8765,
      "一震": 8766,
      "倒了": 8767,
      "冯锡": 8768,
      "好看": 8769,
      "得出": 8770,
      "每人": 8771,
      "老师": 8772,
      "莫大": 8773,
      "跟前": 8774,
      "轻响": 8775,
      "这日": 8776,
      "风波恶": 8777,
      "冯锡范": 8778,
      "刷刷": 8779,
      "左腿": 8780,
      "平安": 8781,
      "心情": 8782,
      "本帮": 8783,
      "走开": 8784,
      "这场": 8785,
      "怎么会": 8786,
      "鹿杖客": 8787,
      "一想": 8788,
      "下落": 8789,
      "侠义": 8790,
      "出家": 8791,
      "合力": 8792,
      "坏了": 8793,
      "好在": 8794,
      "将过来": 8795,
      "少妇": 8796,
      "当晚": 8797,
      "打了个": 8798,
      "拚命": 8799,
      "来来": 8800,
      "澄观": 8801,
      "一手": 8802,
      "不堪": 8803,
      "偷袭": 8804,
      "嘴里": 8805,
      "我跟": 8806,
      "无敌": 8807,
      "来不及": 8808,
      "梅剑": 8809,
      "武氏兄弟": 8810,
      "留情": 8811,
      "答话": 8812,
      "阴阳": 8813,
      "一世": 8814,
      "一雷": 8815,
      "丹田": 8816,
      "丹青": 8817,
      "人众": 8818,
      "便欲": 8819,
      "先后": 8820,
      "大车": 8821,
      "天正": 8822,
      "女郎": 8823,
      "情景": 8824,
      "生了": 8825,
      "真有": 8826,
      "那天": 8827,
      "铁杖": 8828,
      "那老僧": 8829,
      "那老妇": 8830,
      "十余丈": 8831,
      "你老人家": 8832,
      "停步": 8833,
      "共有": 8834,
      "大出": 8835,
      "毙命": 8836,
      "现今": 8837,
      "用心": 8838,
      "胸前": 8839,
      "般的": 8840,
      "过招": 8841,
      "面面相": 8842,
      "黄蓉笑道": 8843,
      "阿紫道": 8844,
      "干净净": 8845,
      "平西王": 8846,
      "面面相觑": 8847,
      "从小": 8848,
      "依言": 8849,
      "六位": 8850,
      "加害": 8851,
      "又在": 8852,
      "咬牙": 8853,
      "学武": 8854,
      "强盗": 8855,
      "忌惮": 8856,
      "成一团": 8857,
      "拜见": 8858,
      "松树": 8859,
      "死不": 8860,
      "滕一雷": 8861,
      "用的": 8862,
      "追来": 8863,
      "逝世": 8864,
      "长发": 8865,
      "一个大": 8866,
      "少林僧": 8867,
      "一天": 8868,
      "他自": 8869,
      "又已": 8870,
      "姊夫": 8871,
      "宝剑": 8872,
      "干干净净": 8873,
      "惊叫": 8874,
      "暗叫": 8875,
      "李秋水": 8876,
      "殷天正": 8877,
      "觉远": 8878,
      "了一条": 8879,
      "脚步声响": 8880,
      "一双": 8881,
      "不清": 8882,
      "你倒": 8883,
      "六七": 8884,
      "又说": 8885,
      "友谅": 8886,
      "可说": 8887,
      "名的": 8888,
      "好像": 8889,
      "小莹": 8890,
      "很多": 8891,
      "惜弱": 8892,
      "欢呼": 8893,
      "每日": 8894,
      "毒蛇": 8895,
      "竟有": 8896,
      "船上": 8897,
      "诸人": 8898,
      "辛苦": 8899,
      "金国": 8900,
      "面上": 8901,
      "举手": 8902,
      "他也": 8903,
      "你做": 8904,
      "侄儿": 8905,
      "几声": 8906,
      "哥儿": 8907,
      "姓大名": 8908,
      "郎君": 8909,
      "问他": 8910,
      "韩小莹": 8911,
      "为我": 8912,
      "乘马": 8913,
      "事先": 8914,
      "再去": 8915,
      "别的": 8916,
      "包惜弱": 8917,
      "又将": 8918,
      "大变": 8919,
      "定会": 8920,
      "张望": 8921,
      "忽必": 8922,
      "我已": 8923,
      "所授": 8924,
      "提到": 8925,
      "正德": 8926,
      "火焰": 8927,
      "皇宫": 8928,
      "竭力": 8929,
      "红了": 8930,
      "结交": 8931,
      "这门": 8932,
      "陈友谅": 8933,
      "身上的": 8934,
      "人心": 8935,
      "倚天": 8936,
      "声色": 8937,
      "慈悲": 8938,
      "成亲": 8939,
      "我才": 8940,
      "既已": 8941,
      "牙齿": 8942,
      "稍有": 8943,
      "要多": 8944,
      "踉跄": 8945,
      "一个小": 8946,
      "忽必烈": 8947,
      "一派": 8948,
      "呛啷": 8949,
      "均是": 8950,
      "子中": 8951,
      "孙婆婆": 8952,
      "察觉": 8953,
      "得我": 8954,
      "提督": 8955,
      "握住": 8956,
      "放入": 8957,
      "教训": 8958,
      "最多": 8959,
      "禀报": 8960,
      "立身": 8961,
      "苗大侠": 8962,
      "踌躇": 8963,
      "这中间": 8964,
      "陆大有": 8965,
      "过了良久": 8966,
      "满脸通红": 8967,
      "三百": 8968,
      "了上来": 8969,
      "令他": 8970,
      "军士": 8971,
      "出力": 8972,
      "包裹": 8973,
      "叫了": 8974,
      "吆喝": 8975,
      "大奇": 8976,
      "姑苏": 8977,
      "学会": 8978,
      "当的一声": 8979,
      "生性": 8980,
      "禀告": 8981,
      "离去": 8982,
      "笑话": 8983,
      "老天": 8984,
      "都要": 8985,
      "顶上": 8986,
      "高高": 8987,
      "金面佛": 8988,
      "一脚": 8989,
      "五六": 8990,
      "便知": 8991,
      "倾听": 8992,
      "官府": 8993,
      "心肠": 8994,
      "指挥": 8995,
      "挥刀": 8996,
      "掌心": 8997,
      "比我": 8998,
      "狠辣": 8999,
      "相似": 9000,
      "等等": 9001,
      "自尽": 9002,
      "话说": 9003,
      "这少年": 9004,
      "降龙": 9005,
      "一行人": 9006,
      "一枚": 9007,
      "了进去": 9008,
      "二字": 9009,
      "劲风": 9010,
      "合十": 9011,
      "大呼": 9012,
      "天山": 9013,
      "定静": 9014,
      "小王爷": 9015,
      "我跟你": 9016,
      "把我": 9017,
      "的脸": 9018,
      "章进": 9019,
      "等到": 9020,
      "胆敢": 9021,
      "胸膛": 9022,
      "若无": 9023,
      "还有什么": 9024,
      "钟兆": 9025,
      "首领": 9026,
      "黄老": 9027,
      "了一大": 9028,
      "不敢当": 9029,
      "天下英雄": 9030,
      "也没有": 9031,
      "那是什么": 9032,
      "蒙古人": 9033,
      "跟我说": 9034,
      "黑白子": 9035,
      "之计": 9036,
      "他为": 9037,
      "你到": 9038,
      "侧头": 9039,
      "团团": 9040,
      "宝贝": 9041,
      "怦怦": 9042,
      "拔剑": 9043,
      "杨不悔": 9044,
      "泰山": 9045,
      "苏菲": 9046,
      "见我": 9047,
      "赵钱": 9048,
      "这部": 9049,
      "遇春": 9050,
      "魔头": 9051,
      "一路上": 9052,
      "一灯大师": 9053,
      "苏菲亚": 9054,
      "之理": 9055,
      "半天": 9056,
      "取过": 9057,
      "可没": 9058,
      "可真": 9059,
      "左首": 9060,
      "师门": 9061,
      "心思": 9062,
      "等一": 9063,
      "老夫": 9064,
      "轻易": 9065,
      "退后": 9066,
      "那样": 9067,
      "都在": 9068,
      "酸麻": 9069,
      "飞刀": 9070,
      "不得了": 9071,
      "那女童": 9072,
      "说不出话来": 9073,
      "一扬": 9074,
      "二位": 9075,
      "十九": 9076,
      "又再": 9077,
      "大帅": 9078,
      "太师父": 9079,
      "好玩": 9080,
      "布袋": 9081,
      "我看": 9082,
      "才道": 9083,
      "朱长": 9084,
      "杯酒": 9085,
      "毫无": 9086,
      "畜生": 9087,
      "的遗": 9088,
      "空智": 9089,
      "而是": 9090,
      "远了": 9091,
      "遇上了": 9092,
      "金针": 9093,
      "萧峰道": 9094,
      "赵钱孙": 9095,
      "人马": 9096,
      "原本": 9097,
      "又何必": 9098,
      "地瞧着": 9099,
      "崆峒": 9100,
      "已知": 9101,
      "常遇春": 9102,
      "忠心": 9103,
      "打量": 9104,
      "揭开": 9105,
      "晕了过去": 9106,
      "杀你": 9107,
      "流水": 9108,
      "终身": 9109,
      "较量": 9110,
      "陪着": 9111,
      "朱长龄": 9112,
      "三步": 9113,
      "上所": 9114,
      "五台": 9115,
      "关心": 9116,
      "动了": 9117,
      "嗤的一声": 9118,
      "强敌": 9119,
      "我知道": 9120,
      "挥动": 9121,
      "收拾": 9122,
      "数里": 9123,
      "样子": 9124,
      "江山": 9125,
      "沙通天": 9126,
      "没半点": 9127,
      "百川": 9128,
      "祖千秋": 9129,
      "神仙": 9130,
      "胜败": 9131,
      "舒服": 9132,
      "西北": 9133,
      "谈论": 9134,
      "那也不": 9135,
      "飞舞": 9136,
      "原来如此": 9137,
      "阿朱道": 9138,
      "那少女道": 9139,
      "沉吟道": 9140,
      "心中一凛": 9141,
      "有点儿": 9142,
      "老头子": 9143,
      "不中": 9144,
      "了不少": 9145,
      "五指": 9146,
      "吐露": 9147,
      "在手": 9148,
      "失了": 9149,
      "头脑": 9150,
      "折断": 9151,
      "是非": 9152,
      "未曾": 9153,
      "杂种": 9154,
      "那道人": 9155,
      "不知他": 9156,
      "皇帝的": 9157,
      "赵敏道": 9158,
      "耶律洪基": 9159,
      "亲热": 9160,
      "充满了": 9161,
      "半空中": 9162,
      "处处": 9163,
      "大小": 9164,
      "奔驰": 9165,
      "姊妹": 9166,
      "尽管": 9167,
      "恐怕": 9168,
      "灵鹫": 9169,
      "皇太后": 9170,
      "瞧出": 9171,
      "笑吟": 9172,
      "索性": 9173,
      "肌肤": 9174,
      "陈正德": 9175,
      "飞起": 9176,
      "黄衫": 9177,
      "一个女子": 9178,
      "一道": 9179,
      "便不": 9180,
      "去的": 9181,
      "吴立身": 9182,
      "告辞": 9183,
      "怪不得": 9184,
      "日月": 9185,
      "的尸身": 9186,
      "这路": 9187,
      "随便": 9188,
      "雪山": 9189,
      "契丹人": 9190,
      "临安": 9191,
      "临死": 9192,
      "倏地": 9193,
      "反击": 9194,
      "可得": 9195,
      "右腿": 9196,
      "哭道": 9197,
      "山东": 9198,
      "拇指": 9199,
      "教我": 9200,
      "旁边": 9201,
      "神通": 9202,
      "群丐": 9203,
      "老兄": 9204,
      "闪电": 9205,
      "闵子": 9206,
      "自然而": 9207,
      "盈盈道": 9208,
      "光闪动": 9209,
      "笑吟吟": 9210,
      "下令": 9211,
      "于我": 9212,
      "全神": 9213,
      "变成了": 9214,
      "叫她": 9215,
      "她在": 9216,
      "打败": 9217,
      "教你": 9218,
      "无一": 9219,
      "桌子": 9220,
      "犯了": 9221,
      "的剑法": 9222,
      "眼望": 9223,
      "让你": 9224,
      "长大": 9225,
      "随口": 9226,
      "五岳派": 9227,
      "傍晚": 9228,
      "叫苦": 9229,
      "多端": 9230,
      "多说": 9231,
      "宝驹": 9232,
      "我自然": 9233,
      "手段": 9234,
      "打他": 9235,
      "有异": 9236,
      "秘笈": 9237,
      "绝顶": 9238,
      "胜过": 9239,
      "藏在": 9240,
      "辛树": 9241,
      "那时候": 9242,
      "韩宝驹": 9243,
      "龙使": 9244,
      "心中却": 9245,
      "十八掌": 9246,
      "黄老邪": 9247,
      "一舟": 9248,
      "两截": 9249,
      "人清": 9250,
      "太多": 9251,
      "得着": 9252,
      "我如": 9253,
      "本是": 9254,
      "模一样": 9255,
      "祖宗": 9256,
      "端端": 9257,
      "给了": 9258,
      "缓步": 9259,
      "跪倒": 9260,
      "达尔": 9261,
      "通海": 9262,
      "那也是": 9263,
      "部属": 9264,
      "银针": 9265,
      "长须": 9266,
      "周伯通道": 9267,
      "恭恭敬敬地": 9268,
      "侯通海": 9269,
      "刘一舟": 9270,
      "女弟子": 9271,
      "将自己": 9272,
      "开去": 9273,
      "归辛树": 9274,
      "接住": 9275,
      "木高峰": 9276,
      "杀得": 9277,
      "清凉": 9278,
      "笑了": 9279,
      "约莫": 9280,
      "而后": 9281,
      "还不是": 9282,
      "道路": 9283,
      "都大": 9284,
      "都给": 9285,
      "不相识": 9286,
      "自然而然": 9287,
      "七十二": 9288,
      "上风": 9289,
      "他和": 9290,
      "做声": 9291,
      "前去": 9292,
      "又向": 9293,
      "又见": 9294,
      "吴六": 9295,
      "地来": 9296,
      "山道": 9297,
      "总兵": 9298,
      "抵御": 9299,
      "明儿": 9300,
      "服了": 9301,
      "村女": 9302,
      "椅子": 9303,
      "自身": 9304,
      "闪身": 9305,
      "陈圆圆": 9306,
      "洪七公道": 9307,
      "出掌": 9308,
      "可怖": 9309,
      "吴之": 9310,
      "奔跑": 9311,
      "对面": 9312,
      "御前": 9313,
      "慈恩": 9314,
      "所学": 9315,
      "毒性": 9316,
      "移动": 9317,
      "稀奇": 9318,
      "进攻": 9319,
      "邓百川": 9320,
      "都统": 9321,
      "什么地方": 9322,
      "哪里还": 9323,
      "血刀僧": 9324,
      "六脉": 9325,
      "十倍": 9326,
      "又来": 9327,
      "只能": 9328,
      "喉头": 9329,
      "大小姐": 9330,
      "威震": 9331,
      "恶斗": 9332,
      "折磨": 9333,
      "曾听": 9334,
      "老僧": 9335,
      "跟在": 9336,
      "迎接": 9337,
      "钢刀": 9338,
      "隐瞒": 9339,
      "震得": 9340,
      "面门": 9341,
      "了一下": 9342,
      "丹青生": 9343,
      "达尔巴": 9344,
      "下泪": 9345,
      "不妥": 9346,
      "亲手": 9347,
      "何足道": 9348,
      "内心": 9349,
      "刀子": 9350,
      "化解": 9351,
      "叫嚷": 9352,
      "各派": 9353,
      "学得": 9354,
      "松溪": 9355,
      "白自在": 9356,
      "石中": 9357,
      "老儿": 9358,
      "老是": 9359,
      "背影": 9360,
      "胡乱": 9361,
      "行刺": 9362,
      "要将": 9363,
      "要想": 9364,
      "途中": 9365,
      "镇南": 9366,
      "马行": 9367,
      "主地": 9368,
      "你若": 9369,
      "八名": 9370,
      "右肩": 9371,
      "哈合台": 9372,
      "嘴巴": 9373,
      "头去": 9374,
      "归二娘": 9375,
      "怪异": 9376,
      "打我": 9377,
      "按住": 9378,
      "数步": 9379,
      "星河": 9380,
      "的朋友": 9381,
      "相识": 9382,
      "空闻": 9383,
      "等三人": 9384,
      "慕容博": 9385,
      "答应了": 9386,
      "忍耐不住": 9387,
      "一千": 9388,
      "与郭靖": 9389,
      "人所": 9390,
      "他已": 9391,
      "偷偷": 9392,
      "双脚": 9393,
      "各有": 9394,
      "向南": 9395,
      "四肢": 9396,
      "因为": 9397,
      "大法": 9398,
      "屋子": 9399,
      "开心": 9400,
      "徐长老": 9401,
      "愤怒": 9402,
      "报答": 9403,
      "抽出": 9404,
      "来势": 9405,
      "极高": 9406,
      "树上": 9407,
      "水中": 9408,
      "治伤": 9409,
      "表妹": 9410,
      "见面": 9411,
      "钱老": 9412,
      "阴毒": 9413,
      "一个是": 9414,
      "武功虽": 9415,
      "一沉": 9416,
      "义兄": 9417,
      "之手": 9418,
      "但如": 9419,
      "大将": 9420,
      "崇祯": 9421,
      "恍然": 9422,
      "打死了": 9423,
      "数次": 9424,
      "有关": 9425,
      "有谁": 9426,
      "本就": 9427,
      "点穴": 9428,
      "猛听得": 9429,
      "珠宝": 9430,
      "瞎子": 9431,
      "穆人清": 9432,
      "纵横": 9433,
      "脖子": 9434,
      "达摩": 9435,
      "这位姑娘": 9436,
      "明白了": 9437,
      "果然是": 9438,
      "徐天宏道": 9439,
      "吴之荣": 9440,
      "一头": 9441,
      "一翁": 9442,
      "三年": 9443,
      "不解": 9444,
      "便请": 9445,
      "刺出": 9446,
      "多大": 9447,
      "开门": 9448,
      "气得": 9449,
      "玄贞": 9450,
      "玩笑": 9451,
      "的女子": 9452,
      "跃下": 9453,
      "踪迹": 9454,
      "酒楼": 9455,
      "海老公道": 9456,
      "不致": 9457,
      "不让": 9458,
      "天上": 9459,
      "就会": 9460,
      "崔秋": 9461,
      "惊人": 9462,
      "殿下": 9463,
      "洋洋": 9464,
      "苏星河": 9465,
      "这件": 9466,
      "始终没": 9467,
      "你不用": 9468,
      "三十六": 9469,
      "定静师太": 9470,
      "兵马": 9471,
      "危难": 9472,
      "和你": 9473,
      "大和尚": 9474,
      "小说": 9475,
      "张松溪": 9476,
      "我了": 9477,
      "的神色": 9478,
      "群弟子": 9479,
      "见你": 9480,
      "这对": 9481,
      "这招": 9482,
      "马匹": 9483,
      "这样的": 9484,
      "了一会儿": 9485,
      "下泪来": 9486,
      "不利": 9487,
      "人了": 9488,
      "他既": 9489,
      "余下": 9490,
      "决无": 9491,
      "大官": 9492,
      "小孩": 9493,
      "帮手": 9494,
      "影子": 9495,
      "怕他": 9496,
      "惕守": 9497,
      "我若": 9498,
      "戒律": 9499,
      "找不到": 9500,
      "挡在": 9501,
      "机关": 9502,
      "椅上": 9503,
      "正想": 9504,
      "淋漓": 9505,
      "猛力": 9506,
      "留神": 9507,
      "眼见他": 9508,
      "石上": 9509,
      "红药": 9510,
      "那知": 9511,
      "长矛": 9512,
      "闭目": 9513,
      "龙头": 9514,
      "什么东西": 9515,
      "程灵素道": 9516,
      "星宿派": 9517,
      "再加上": 9518,
      "王八蛋": 9519,
      "一早": 9520,
      "不幸": 9521,
      "之气": 9522,
      "人都": 9523,
      "侠客": 9524,
      "便会": 9525,
      "去见": 9526,
      "只消": 9527,
      "可不": 9528,
      "号称": 9529,
      "君宝": 9530,
      "师侄": 9531,
      "张教主": 9532,
      "打去": 9533,
      "斜身": 9534,
      "有理": 9535,
      "杨大哥": 9536,
      "殷离": 9537,
      "爸爸": 9538,
      "生生": 9539,
      "自来": 9540,
      "西华": 9541,
      "马行空": 9542,
      "从中": 9543,
      "何红药": 9544,
      "作为": 9545,
      "厉声": 9546,
      "妹妹": 9547,
      "小的": 9548,
      "尽力": 9549,
      "突觉": 9550,
      "苦苦": 9551,
      "行动": 9552,
      "费要多": 9553,
      "进房": 9554,
      "镇上": 9555,
      "阿曼": 9556,
      "高举": 9557,
      "武功了得": 9558,
      "大师兄": 9559,
      "一颗心": 9560,
      "六脉神剑": 9561,
      "费要多罗": 9562,
      "一击": 9563,
      "我自己": 9564,
      "打中": 9565,
      "挥掌": 9566,
      "桃根": 9567,
      "汤沛": 9568,
      "烦恼": 9569,
      "疾驰": 9570,
      "的性命": 9571,
      "知觉": 9572,
      "除非": 9573,
      "你这小": 9574,
      "躬身道": 9575,
      "罗刹国": 9576,
      "之术": 9577,
      "假的": 9578,
      "八人": 9579,
      "写的": 9580,
      "双膝": 9581,
      "向自己": 9582,
      "听来": 9583,
      "呻吟": 9584,
      "子弟": 9585,
      "存心": 9586,
      "小玄": 9587,
      "岳先生": 9588,
      "康亲王": 9589,
      "我姓": 9590,
      "所见": 9591,
      "扶着": 9592,
      "挥手": 9593,
      "樊一翁": 9594,
      "礼物": 9595,
      "这套": 9596,
      "饮酒": 9597,
      "也不肯": 9598,
      "厉害的": 9599,
      "过了好": 9600,
      "到底是": 9601,
      "完颜萍": 9602,
      "全真派": 9603,
      "世间": 9604,
      "伸指": 9605,
      "使剑": 9606,
      "发足": 9607,
      "女孩": 9608,
      "就只": 9609,
      "我给你": 9610,
      "所谓": 9611,
      "挡架": 9612,
      "掌柜": 9613,
      "掷去": 9614,
      "斜眼": 9615,
      "气恼": 9616,
      "瘦头陀": 9617,
      "睁开眼": 9618,
      "练得": 9619,
      "肌肉": 9620,
      "药王": 9621,
      "衡山": 9622,
      "贤弟": 9623,
      "青袍": 9624,
      "慕容氏": 9625,
      "不动声色": 9626,
      "二老": 9627,
      "他自己": 9628,
      "再行": 9629,
      "告知": 9630,
      "周姑娘": 9631,
      "大仇": 9632,
      "定闲": 9633,
      "巧妙": 9634,
      "张康": 9635,
      "当场": 9636,
      "情急": 9637,
      "打在": 9638,
      "桃枝": 9639,
      "着脸": 9640,
      "砰砰": 9641,
      "老英雄": 9642,
      "良机": 9643,
      "贱人": 9644,
      "门中": 9645,
      "问我": 9646,
      "阳指": 9647,
      "不知去向": 9648,
      "江湖上的": 9649,
      "你说什么": 9650,
      "也是一": 9651,
      "他身子": 9652,
      "向右": 9653,
      "嘱咐": 9654,
      "山下": 9655,
      "无用": 9656,
      "时时": 9657,
      "每次": 9658,
      "玉真": 9659,
      "甚高": 9660,
      "细看": 9661,
      "经文": 9662,
      "老毒物": 9663,
      "自从": 9664,
      "该死": 9665,
      "这叫做": 9666,
      "铁胆": 9667,
      "这一日": 9668,
      "令狐冲笑道": 9669,
      "谢逊道": 9670,
      "金蛇郎君": 9671,
      "闵子华": 9672,
      "御前侍卫": 9673,
      "一跃": 9674,
      "不敌": 9675,
      "两下": 9676,
      "乾坤": 9677,
      "了吗": 9678,
      "他性命": 9679,
      "内伤": 9680,
      "出其": 9681,
      "又去": 9682,
      "好事": 9683,
      "已无": 9684,
      "抛下": 9685,
      "矮子": 9686,
      "耳听得": 9687,
      "自有": 9688,
      "自语": 9689,
      "色的": 9690,
      "请他": 9691,
      "迷迷糊": 9692,
      "风际": 9693,
      "手中长剑": 9694,
      "不由自": 9695,
      "不见了": 9696,
      "方证大师": 9697,
      "石中玉": 9698,
      "迷迷糊糊": 9699,
      "两枚": 9700,
      "举刀": 9701,
      "也会": 9702,
      "亲生": 9703,
      "何惕守": 9704,
      "再无": 9705,
      "向你": 9706,
      "听到了": 9707,
      "城里": 9708,
      "将过去": 9709,
      "岂有": 9710,
      "愕然": 9711,
      "挂念": 9712,
      "敏君": 9713,
      "滋味": 9714,
      "看去": 9715,
      "站定": 9716,
      "而不": 9717,
      "若要": 9718,
      "躺在": 9719,
      "金兵": 9720,
      "无可奈何": 9721,
      "辟邪剑法": 9722,
      "不自禁地": 9723,
      "上有": 9724,
      "也非": 9725,
      "但在": 9726,
      "倒转": 9727,
      "却仍": 9728,
      "喜色": 9729,
      "好心": 9730,
      "媳妇": 9731,
      "小慧": 9732,
      "救你": 9733,
      "晕去": 9734,
      "来去": 9735,
      "桑结": 9736,
      "点燃": 9737,
      "然一笑": 9738,
      "王重阳": 9739,
      "的铁": 9740,
      "神气": 9741,
      "称为": 9742,
      "纠缠": 9743,
      "西毒": 9744,
      "陆高": 9745,
      "顺着": 9746,
      "鹤笔翁": 9747,
      "倚天剑": 9748,
      "丁敏君": 9749,
      "上门": 9750,
      "依稀": 9751,
      "北斗": 9752,
      "占了": 9753,
      "发颤": 9754,
      "大海": 9755,
      "杀害": 9756,
      "洞口": 9757,
      "照顾": 9758,
      "百余": 9759,
      "的内力": 9760,
      "瞎了": 9761,
      "置之": 9762,
      "群盗": 9763,
      "还请": 9764,
      "钦佩": 9765,
      "这么一来": 9766,
      "声大哭": 9767,
      "打狗棒法": 9768,
      "一副": 9769,
      "一揖": 9770,
      "不加": 9771,
      "不耐": 9772,
      "不远": 9773,
      "为你": 9774,
      "大不相同": 9775,
      "张君宝": 9776,
      "必须": 9777,
      "打不过": 9778,
      "热气": 9779,
      "谁也": 9780,
      "铮铮": 9781,
      "阴谋": 9782,
      "在他身上": 9783,
      "武林中的": 9784,
      "星宿老": 9785,
      "下次": 9786,
      "任教主": 9787,
      "但随即": 9788,
      "使个": 9789,
      "先师": 9790,
      "再也不": 9791,
      "几位": 9792,
      "去啦": 9793,
      "反贼": 9794,
      "四面": 9795,
      "富贵": 9796,
      "山坡": 9797,
      "怀疑": 9798,
      "情深": 9799,
      "擒住": 9800,
      "有多少": 9801,
      "良心": 9802,
      "那马": 9803,
      "随后": 9804,
      "住了她": 9805,
      "一时之间": 9806,
      "睁开眼来": 9807,
      "一半": 9808,
      "与黄蓉": 9809,
      "乘机": 9810,
      "仗义": 9811,
      "六个": 9812,
      "剑刃": 9813,
      "却哪里": 9814,
      "又不": 9815,
      "吴坎": 9816,
      "呜呜": 9817,
      "多了": 9818,
      "大都": 9819,
      "太子": 9820,
      "奇了": 9821,
      "奔来": 9822,
      "总镖头": 9823,
      "手来": 9824,
      "打仗": 9825,
      "杀了他": 9826,
      "甚好": 9827,
      "紧急": 9828,
      "练武": 9829,
      "聚会": 9830,
      "读书": 9831,
      "那村女": 9832,
      "酸软": 9833,
      "颤动": 9834,
      "风流": 9835,
      "不是我": 9836,
      "可是他": 9837,
      "岳不群道": 9838,
      "了半天": 9839,
      "辟邪剑谱": 9840,
      "三爷": 9841,
      "下毒": 9842,
      "不已": 9843,
      "临头": 9844,
      "了上去": 9845,
      "便来": 9846,
      "到这": 9847,
      "呼的一声": 9848,
      "在内": 9849,
      "在意": 9850,
      "失手": 9851,
      "好奇": 9852,
      "心经": 9853,
      "情花": 9854,
      "拆解": 9855,
      "拍出": 9856,
      "挥剑": 9857,
      "放手": 9858,
      "放声大哭": 9859,
      "死后": 9860,
      "毒辣": 9861,
      "石子": 9862,
      "称赞": 9863,
      "竟尔": 9864,
      "笑声": 9865,
      "花园": 9866,
      "钦差": 9867,
      "防备": 9868,
      "黑暗": 9869,
      "如何是好": 9870,
      "张翠山道": 9871,
      "判官笔": 9872,
      "莫大先生": 9873,
      "不容": 9874,
      "也难": 9875,
      "了来": 9876,
      "令尊": 9877,
      "全冠": 9878,
      "剑锋": 9879,
      "可要": 9880,
      "司空": 9881,
      "庙中": 9882,
      "志平": 9883,
      "房里": 9884,
      "抢着": 9885,
      "摇手": 9886,
      "时日": 9887,
      "机密": 9888,
      "杀手": 9889,
      "柄长剑": 9890,
      "桂公公": 9891,
      "火烧": 9892,
      "照料": 9893,
      "留在": 9894,
      "白振": 9895,
      "程青竹": 9896,
      "等候": 9897,
      "而言": 9898,
      "讲究": 9899,
      "杀了我": 9900,
      "全冠清": 9901,
      "一事": 9902,
      "七个": 9903,
      "万两银子": 9904,
      "了口": 9905,
      "使力": 9906,
      "使用": 9907,
      "凤凰": 9908,
      "周身": 9909,
      "城外": 9910,
      "山谷": 9911,
      "打到": 9912,
      "招招": 9913,
      "料不到": 9914,
      "维扬": 9915,
      "误会": 9916,
      "队长": 9917,
      "黯然": 9918,
      "了几声": 9919,
      "郭襄道": 9920,
      "一言不发": 9921,
      "叫什么名字": 9922,
      "老天爷": 9923,
      "不够": 9924,
      "不弱": 9925,
      "不起来": 9926,
      "人丛中": 9927,
      "他将": 9928,
      "关东": 9929,
      "卓伦": 9930,
      "变招": 9931,
      "墙上": 9932,
      "家中": 9933,
      "心法": 9934,
      "打你": 9935,
      "木卓伦": 9936,
      "梦中": 9937,
      "玄冥": 9938,
      "痛快": 9939,
      "神医": 9940,
      "韦大人": 9941,
      "月光下": 9942,
      "孙仲君": 9943,
      "吴六奇": 9944,
      "崔秋山": 9945,
      "不凡": 9946,
      "了开去": 9947,
      "他对": 9948,
      "你却": 9949,
      "十天": 9950,
      "双颊": 9951,
      "同道": 9952,
      "在前": 9953,
      "学过": 9954,
      "尊师": 9955,
      "尹志平": 9956,
      "左边": 9957,
      "怒之下": 9958,
      "所有": 9959,
      "拿去": 9960,
      "无事": 9961,
      "死于": 9962,
      "毒针": 9963,
      "渔网": 9964,
      "的长剑": 9965,
      "真心": 9966,
      "老先生": 9967,
      "背脊": 9968,
      "公子爷": 9969,
      "明明是": 9970,
      "皱眉道": 9971,
      "五台山": 9972,
      "灵鹫宫": 9973,
      "一到": 9974,
      "一推": 9975,
      "你知道": 9976,
      "全没": 9977,
      "又过": 9978,
      "地图": 9979,
      "大哭": 9980,
      "急速": 9981,
      "恭喜": 9982,
      "抚摸": 9983,
      "无色": 9984,
      "本书": 9985,
      "深谷": 9986,
      "满是": 9987,
      "短刀": 9988,
      "破口": 9989,
      "突见": 9990,
      "苏鲁": 9991,
      "赢了": 9992,
      "赶去": 9993,
      "两个人": 9994,
      "脚步声": 9995,
      "不要脸": 9996,
      "的情景": 9997,
      "出其不意": 9998,
      "风际中": 9999,
      "苏鲁克": 10000,
      "一向": 10001,
      "一年": 10002,
      "一模一样": 10003,
      "三僧": 10004,
      "传的": 10005,
      "住口": 10006,
      "军中": 10007,
      "好说": 10008,
      "少爷": 10009,
      "恨恨": 10010,
      "懂得": 10011,
      "或是": 10012,
      "数千": 10013,
      "混乱": 10014,
      "的汉子": 10015,
      "解释": 10016,
      "话声": 10017,
      "越快": 10018,
      "逃出": 10019,
      "武功的": 10020,
      "下来的": 10021,
      "林平之道": 10022,
      "小玄子": 10023,
      "丈许": 10024,
      "之类": 10025,
      "了自己": 10026,
      "公冶": 10027,
      "再过": 10028,
      "又没": 10029,
      "可秀": 10030,
      "在外": 10031,
      "在天": 10032,
      "失望": 10033,
      "她说": 10034,
      "平常": 10035,
      "惊讶": 10036,
      "探头": 10037,
      "昔日": 10038,
      "望见": 10039,
      "李可秀": 10040,
      "火折": 10041,
      "猴儿": 10042,
      "船舱": 10043,
      "蓦地": 10044,
      "让他们": 10045,
      "这女子": 10046,
      "远去": 10047,
      "镖师": 10048,
      "长气": 10049,
      "雪地": 10050,
      "也没有了": 10051,
      "受了伤": 10052,
      "王剑英": 10053,
      "只剩下": 10054,
      "陆高轩": 10055,
      "不忘": 10056,
      "九难": 10057,
      "他这": 10058,
      "你把": 10059,
      "决非": 10060,
      "几十": 10061,
      "十来": 10062,
      "呵呵": 10063,
      "回事": 10064,
      "均已": 10065,
      "天天": 10066,
      "女婿": 10067,
      "封信": 10068,
      "小皇帝": 10069,
      "少了": 10070,
      "归于": 10071,
      "情形": 10072,
      "惊喜": 10073,
      "我做": 10074,
      "我叫": 10075,
      "我还": 10076,
      "提气": 10077,
      "无伦": 10078,
      "无辜": 10079,
      "机会": 10080,
      "杭州": 10081,
      "殿上": 10082,
      "玉蜂": 10083,
      "白寒": 10084,
      "的穴道": 10085,
      "穿过": 10086,
      "老和尚": 10087,
      "老婊子": 10088,
      "胸中": 10089,
      "角上": 10090,
      "这天": 10091,
      "阻拦": 10092,
      "为什么要": 10093,
      "不提": 10094,
      "伸掌": 10095,
      "你武功": 10096,
      "元璋": 10097,
      "半句": 10098,
      "半个时辰": 10099,
      "只听他": 10100,
      "大通": 10101,
      "好得很": 10102,
      "好端端": 10103,
      "定神": 10104,
      "小孩子": 10105,
      "怒火": 10106,
      "怒目": 10107,
      "我妈": 10108,
      "斗得": 10109,
      "树林": 10110,
      "每一招": 10111,
      "比试": 10112,
      "百岁": 10113,
      "盘膝": 10114,
      "脱险": 10115,
      "脸有": 10116,
      "萨克": 10117,
      "赵姑娘": 10118,
      "起伏": 10119,
      "那不是": 10120,
      "陈禹": 10121,
      "非但": 10122,
      "你这般": 10123,
      "梅剑和": 10124,
      "一拉": 10125,
      "三弟": 10126,
      "伤害": 10127,
      "但听": 10128,
      "兵将": 10129,
      "冲出": 10130,
      "击出": 10131,
      "单是": 10132,
      "却无": 10133,
      "参见": 10134,
      "喝问": 10135,
      "图形": 10136,
      "在桌上": 10137,
      "大明": 10138,
      "尊驾": 10139,
      "居士": 10140,
      "推出": 10141,
      "未能": 10142,
      "本寺": 10143,
      "朱元璋": 10144,
      "求你": 10145,
      "活着": 10146,
      "烛火": 10147,
      "王维扬": 10148,
      "称呼": 10149,
      "竟似": 10150,
      "美女": 10151,
      "行了": 10152,
      "袁士": 10153,
      "越好": 10154,
      "郝大通": 10155,
      "阵法": 10156,
      "骂我": 10157,
      "骗人": 10158,
      "黄钟": 10159,
      "黑夜": 10160,
      "不知是": 10161,
      "心中一动": 10162,
      "否则的话": 10163,
      "千万不可": 10164,
      "顷刻之间": 10165,
      "两头": 10166,
      "于此": 10167,
      "伯母": 10168,
      "做个": 10169,
      "关外": 10170,
      "参与": 10171,
      "在那": 10172,
      "安危": 10173,
      "岂非": 10174,
      "干了": 10175,
      "引见": 10176,
      "当作": 10177,
      "得有": 10178,
      "恶僧": 10179,
      "我却": 10180,
      "我家": 10181,
      "教中": 10182,
      "李四": 10183,
      "每天": 10184,
      "猜想": 10185,
      "瑶迦": 10186,
      "程瑶迦": 10187,
      "趁机": 10188,
      "辽东": 10189,
      "道姑": 10190,
      "吓得魂": 10191,
      "躬身行礼": 10192,
      "大厅上": 10193,
      "一碗": 10194,
      "七怪": 10195,
      "之名": 10196,
      "五毒": 10197,
      "会有": 10198,
      "你跟": 10199,
      "便往": 10200,
      "光佐": 10201,
      "关头": 10202,
      "击落": 10203,
      "千百": 10204,
      "厅中": 10205,
      "可有": 10206,
      "可爱": 10207,
      "图谋": 10208,
      "布置": 10209,
      "悬崖": 10210,
      "拿来": 10211,
      "日夜": 10212,
      "死去": 10213,
      "段氏": 10214,
      "穿了": 10215,
      "立足": 10216,
      "管家": 10217,
      "红棉": 10218,
      "老弟": 10219,
      "而立": 10220,
      "自杀": 10221,
      "计较": 10222,
      "认输": 10223,
      "说出": 10224,
      "这大": 10225,
      "原来他": 10226,
      "想到此处": 10227,
      "大家都": 10228,
      "转过头来": 10229,
      "血刀老祖": 10230,
      "下马来": 10231,
      "陡然间": 10232,
      "都大锦": 10233,
      "黄钟公": 10234,
      "一凛": 10235,
      "一死": 10236,
      "为她": 10237,
      "之仇": 10238,
      "从所未": 10239,
      "他却": 10240,
      "伯父": 10241,
      "伸出手": 10242,
      "全都": 10243,
      "去瞧瞧": 10244,
      "只感": 10245,
      "围住": 10246,
      "在手中": 10247,
      "均有": 10248,
      "太也": 10249,
      "如风": 10250,
      "年的": 10251,
      "得她": 10252,
      "我倒": 10253,
      "所说": 10254,
      "朝唐": 10255,
      "死得": 10256,
      "潇洒": 10257,
      "禅杖": 10258,
      "称是": 10259,
      "竟也": 10260,
      "第一个": 10261,
      "经历": 10262,
      "蹄声": 10263,
      "马姑娘": 10264,
      "少林派的": 10265,
      "哥儿俩": 10266,
      "公礼": 10267,
      "凝目": 10268,
      "吃惊": 10269,
      "好歹": 10270,
      "妓院": 10271,
      "平日": 10272,
      "张五": 10273,
      "折扇": 10274,
      "护送": 10275,
      "插口道": 10276,
      "朱九": 10277,
      "极少": 10278,
      "此番": 10279,
      "焦公礼": 10280,
      "牛肉": 10281,
      "理他": 10282,
      "的儿子": 10283,
      "眉僧": 10284,
      "舍不得": 10285,
      "贯注": 10286,
      "走来": 10287,
      "那便是": 10288,
      "魁梧": 10289,
      "麻光佐": 10290,
      "的是什么": 10291,
      "了这许多": 10292,
      "一心": 10293,
      "七子": 10294,
      "与人": 10295,
      "任由": 10296,
      "住手": 10297,
      "你啦": 10298,
      "发了": 10299,
      "叫作": 10300,
      "叫了出来": 10301,
      "吐蕃": 10302,
      "启禀": 10303,
      "大清": 10304,
      "天德": 10305,
      "如山": 10306,
      "学了": 10307,
      "张朝唐": 10308,
      "得你": 10309,
      "得起": 10310,
      "快说": 10311,
      "才能": 10312,
      "方始": 10313,
      "沙天": 10314,
      "现身": 10315,
      "笑着": 10316,
      "而同": 10317,
      "药丸": 10318,
      "袁相公": 10319,
      "要穴": 10320,
      "身去": 10321,
      "长笑": 10322,
      "骆驼": 10323,
      "骑兵": 10324,
      "我们的": 10325,
      "怎么样": 10326,
      "听到这里": 10327,
      "十余人": 10328,
      "又惊又怒": 10329,
      "一遍": 10330,
      "上身": 10331,
      "不放": 10332,
      "佛门": 10333,
      "关明": 10334,
      "击中": 10335,
      "只一": 10336,
      "只说": 10337,
      "堂中": 10338,
      "墙壁": 10339,
      "大队": 10340,
      "少说": 10341,
      "常言道": 10342,
      "应付": 10343,
      "得胜": 10344,
      "挡住": 10345,
      "无仇": 10346,
      "无奈": 10347,
      "法儿": 10348,
      "甚至": 10349,
      "直至": 10350,
      "相干": 10351,
      "石头": 10352,
      "福建": 10353,
      "而为": 10354,
      "胡言": 10355,
      "薛神医": 10356,
      "让人": 10357,
      "跌倒": 10358,
      "辽国": 10359,
      "这不是": 10360,
      "青衣": 10361,
      "什么的": 10362,
      "两人都": 10363,
      "可是我": 10364,
      "不相干": 10365,
      "神雕侠": 10366,
      "一举": 10367,
      "一共": 10368,
      "丁丁": 10369,
      "丈余": 10370,
      "他便": 10371,
      "再看": 10372,
      "冒充": 10373,
      "凌霄": 10374,
      "剑士": 10375,
      "口音": 10376,
      "叫了起来": 10377,
      "多时辰": 10378,
      "大感": 10379,
      "如飞": 10380,
      "师祖": 10381,
      "弯腰": 10382,
      "扑上": 10383,
      "洪凌波": 10384,
      "溜溜": 10385,
      "狮王": 10386,
      "相顾": 10387,
      "着我": 10388,
      "练到": 10389,
      "老道": 10390,
      "那瘦": 10391,
      "钟夫人": 10392,
      "长刀": 10393,
      "附近": 10394,
      "了一遍": 10395,
      "过了头": 10396,
      "玉真子": 10397,
      "一字": 10398,
      "不分": 10399,
      "东边": 10400,
      "之功": 10401,
      "农夫": 10402,
      "变幻": 10403,
      "周铁": 10404,
      "哲别": 10405,
      "大祸": 10406,
      "大雨": 10407,
      "就没": 10408,
      "差不多": 10409,
      "带头": 10410,
      "张开": 10411,
      "当是": 10412,
      "情由": 10413,
      "惊奇": 10414,
      "所能": 10415,
      "找到了": 10416,
      "时的": 10417,
      "有甚": 10418,
      "李岩": 10419,
      "树干": 10420,
      "比剑": 10421,
      "焦宛儿": 10422,
      "的两": 10423,
      "着一个": 10424,
      "纵跃": 10425,
      "西首": 10426,
      "要来": 10427,
      "计策": 10428,
      "议论": 10429,
      "记挂": 10430,
      "跟人": 10431,
      "身畔": 10432,
      "那两个": 10433,
      "驸马": 10434,
      "心想这": 10435,
      "这位是": 10436,
      "丐帮帮主": 10437,
      "那日在": 10438,
      "侠客岛": 10439,
      "关明梅": 10440,
      "为妻": 10441,
      "书信": 10442,
      "从没": 10443,
      "伸舌头": 10444,
      "冲儿": 10445,
      "却不是": 10446,
      "原因": 10447,
      "双双": 10448,
      "吃的": 10449,
      "哭了出来": 10450,
      "哽咽": 10451,
      "啰唆": 10452,
      "声名": 10453,
      "大乱": 10454,
      "大德": 10455,
      "学艺": 10456,
      "府中": 10457,
      "得手": 10458,
      "情意": 10459,
      "拆了": 10460,
      "模糊": 10461,
      "泰山派": 10462,
      "清脆": 10463,
      "渔人": 10464,
      "空隙": 10465,
      "等都": 10466,
      "而坐": 10467,
      "苦练": 10468,
      "虽有": 10469,
      "谁也不敢": 10470,
      "难保": 10471,
      "也不知道": 10472,
      "英雄豪杰": 10473,
      "男子汉": 10474,
      "怦怦乱跳": 10475,
      "沙天广": 10476,
      "乔帮主": 10477,
      "你和": 10478,
      "公差": 10479,
      "可比": 10480,
      "圆性": 10481,
      "大炮": 10482,
      "大腿": 10483,
      "大英雄": 10484,
      "尊姓大名": 10485,
      "左脚": 10486,
      "干人": 10487,
      "弥陀": 10488,
      "径自": 10489,
      "拉扯": 10490,
      "换了": 10491,
      "束手": 10492,
      "桃实": 10493,
      "活了": 10494,
      "独孤": 10495,
      "相遇": 10496,
      "破解": 10497,
      "约而同": 10498,
      "胜了": 10499,
      "身分": 10500,
      "郑重": 10501,
      "铁盒": 10502,
      "铜牌": 10503,
      "颤抖": 10504,
      "自己人": 10505,
      "令狐公子": 10506,
      "第一次": 10507,
      "的名头": 10508,
      "袁士霄": 10509,
      "周铁鹪": 10510,
      "一分": 10511,
      "不虚": 10512,
      "乘势": 10513,
      "乞丐": 10514,
      "二师哥": 10515,
      "从窗": 10516,
      "全仗": 10517,
      "八方": 10518,
      "几招": 10519,
      "刚好": 10520,
      "双雕": 10521,
      "吃过": 10522,
      "嘴角": 10523,
      "天竺": 10524,
      "当今": 10525,
      "我跟你说": 10526,
      "挪移": 10527,
      "敦儒": 10528,
      "智光": 10529,
      "没能": 10530,
      "满头": 10531,
      "的一个": 10532,
      "相差": 10533,
      "茫然": 10534,
      "血色": 10535,
      "见杨过": 10536,
      "赶路": 10537,
      "轻身": 10538,
      "难受": 10539,
      "雪白": 10540,
      "见到她": 10541,
      "数十丈": 10542,
      "的小子": 10543,
      "钟兆文": 10544,
      "一间": 10545,
      "不转": 10546,
      "个儿": 10547,
      "也罢": 10548,
      "今儿": 10549,
      "其意": 10550,
      "南方": 10551,
      "双刀": 10552,
      "取了": 10553,
      "和那": 10554,
      "嘴唇": 10555,
      "坐倒": 10556,
      "大急": 10557,
      "天龙": 10558,
      "对着": 10559,
      "就不": 10560,
      "心愿": 10561,
      "忽觉": 10562,
      "想必": 10563,
      "我不知道": 10564,
      "掌风": 10565,
      "桃干": 10566,
      "森森": 10567,
      "正待": 10568,
      "满腔": 10569,
      "独自": 10570,
      "的金": 10571,
      "见怪": 10572,
      "这家伙": 10573,
      "那晚": 10574,
      "陛下": 10575,
      "只见那": 10576,
      "丐帮的": 10577,
      "此言一出": 10578,
      "从怀中取出": 10579,
      "长叹一声": 10580,
      "降龙十八掌": 10581,
      "一株": 10582,
      "也可": 10583,
      "击去": 10584,
      "地步": 10585,
      "士中": 10586,
      "女的": 10587,
      "她一": 10588,
      "微感": 10589,
      "心动": 10590,
      "护住": 10591,
      "掌教": 10592,
      "灯笼": 10593,
      "热血": 10594,
      "玉龙": 10595,
      "的姑娘": 10596,
      "的女儿": 10597,
      "神僧": 10598,
      "竟如此": 10599,
      "筷子": 10600,
      "而入": 10601,
      "腹中": 10602,
      "莫名": 10603,
      "起疑": 10604,
      "这二人": 10605,
      "送给": 10606,
      "飞奔": 10607,
      "马鞭": 10608,
      "也不必": 10609,
      "不过是": 10610,
      "身子一": 10611,
      "数十名": 10612,
      "擒拿手": 10613,
      "孙仲寿": 10614,
      "不耐烦": 10615,
      "三天": 10616,
      "不离": 10617,
      "两旁": 10618,
      "两次": 10619,
      "主持": 10620,
      "以一": 10621,
      "你听": 10622,
      "你不是": 10623,
      "分手": 10624,
      "去看": 10625,
      "变故": 10626,
      "和气": 10627,
      "喜悦": 10628,
      "坐了": 10629,
      "如是": 10630,
      "将信": 10631,
      "尚在": 10632,
      "形貌": 10633,
      "惨白": 10634,
      "想法子": 10635,
      "执法": 10636,
      "教他": 10637,
      "敬重": 10638,
      "无踪": 10639,
      "气愤": 10640,
      "白发": 10641,
      "等我": 10642,
      "素知": 10643,
      "脸露": 10644,
      "诸位": 10645,
      "越想": 10646,
      "这批": 10647,
      "这三人": 10648,
      "连环": 10649,
      "部经书": 10650,
      "黄真": 10651,
      "兄弟的": 10652,
      "的大事": 10653,
      "王语嫣道": 10654,
      "罗刹兵": 10655,
      "那也罢了": 10656,
      "上天": 10657,
      "不约而同": 10658,
      "人数": 10659,
      "余地": 10660,
      "几句话": 10661,
      "可见": 10662,
      "哪知道": 10663,
      "回归": 10664,
      "多有": 10665,
      "大举": 10666,
      "大驾": 10667,
      "天门": 10668,
      "将上来": 10669,
      "常人": 10670,
      "得干干净净": 10671,
      "忘记": 10672,
      "所知": 10673,
      "抓去": 10674,
      "接口道": 10675,
      "数人": 10676,
      "河南": 10677,
      "玩意": 10678,
      "的高手": 10679,
      "石室": 10680,
      "神智": 10681,
      "素不相识": 10682,
      "自会": 10683,
      "蝴蝶": 10684,
      "计老人": 10685,
      "这边": 10686,
      "金发": 10687,
      "隐居": 10688,
      "顾不得": 10689,
      "香气": 10690,
      "了一只": 10691,
      "青青道": 10692,
      "木婉清道": 10693,
      "神龙教": 10694,
      "镇南王": 10695,
      "一处": 10696,
      "三四": 10697,
      "也能": 10698,
      "傻蛋": 10699,
      "兄长": 10700,
      "凌空": 10701,
      "只待": 10702,
      "吃亏": 10703,
      "奥妙": 10704,
      "成名": 10705,
      "攻击": 10706,
      "攻打": 10707,
      "散人": 10708,
      "无恙": 10709,
      "死尸": 10710,
      "疗伤": 10711,
      "真好": 10712,
      "瞪视": 10713,
      "石庄主": 10714,
      "秦红棉": 10715,
      "结义": 10716,
      "艰难": 10717,
      "袖手": 10718,
      "说笑": 10719,
      "豹子": 10720,
      "进宫": 10721,
      "都道": 10722,
      "阿弥陀": 10723,
      "黄河": 10724,
      "咱们就": 10725,
      "过了半晌": 10726,
      "朱九真": 10727,
      "两块": 10728,
      "了两个": 10729,
      "以防": 10730,
      "你是谁": 10731,
      "侍候": 10732,
      "侥幸": 10733,
      "全金发": 10734,
      "凶手": 10735,
      "刀柄": 10736,
      "去做": 10737,
      "另一人道": 10738,
      "叫好": 10739,
      "后颈": 10740,
      "地上": 10741,
      "小太监": 10742,
      "张真人": 10743,
      "当胸": 10744,
      "恰好": 10745,
      "我二人": 10746,
      "打紧": 10747,
      "拳打": 10748,
      "无影": 10749,
      "有气": 10750,
      "此外": 10751,
      "武敦儒": 10752,
      "段天德": 10753,
      "的招数": 10754,
      "相同": 10755,
      "相比": 10756,
      "眼看": 10757,
      "着急": 10758,
      "脚上": 10759,
      "至少": 10760,
      "虽不": 10761,
      "身世": 10762,
      "轻声道": 10763,
      "骨头": 10764,
      "十余招": 10765,
      "手下留情": 10766,
      "阿弥陀佛": 10767,
      "三下": 10768,
      "个明白": 10769,
      "为何": 10770,
      "了好": 10771,
      "以此": 10772,
      "住她": 10773,
      "作响": 10774,
      "克制": 10775,
      "再打": 10776,
      "又怎能": 10777,
      "哼哼": 10778,
      "喘气": 10779,
      "头儿": 10780,
      "子里": 10781,
      "寂静": 10782,
      "带同": 10783,
      "帮会": 10784,
      "慷慨": 10785,
      "成的": 10786,
      "我心中": 10787,
      "数尺": 10788,
      "未毕": 10789,
      "理睬": 10790,
      "的少年": 10791,
      "空心": 10792,
      "脸如": 10793,
      "自言": 10794,
      "范蠡": 10795,
      "谁也没": 10796,
      "阮士中": 10797,
      "这小姑娘": 10798,
      "七侠": 10799,
      "个大": 10800,
      "于你": 10801,
      "从头": 10802,
      "他这一": 10803,
      "住了他": 10804,
      "保佑": 10805,
      "健雄": 10806,
      "兆和": 10807,
      "刀枪": 10808,
      "十七": 10809,
      "发掌": 10810,
      "嘉兴": 10811,
      "大力": 10812,
      "女孩儿": 10813,
      "如意": 10814,
      "婆娘": 10815,
      "恨不得": 10816,
      "我在这里": 10817,
      "所使": 10818,
      "抢过": 10819,
      "撕下": 10820,
      "数寸": 10821,
      "澄光": 10822,
      "独斗": 10823,
      "瞧你": 10824,
      "答道": 10825,
      "胡大哥": 10826,
      "行径": 10827,
      "说了出来": 10828,
      "踏上": 10829,
      "躺在地下": 10830,
      "阎基": 10831,
      "露出一": 10832,
      "非烟": 10833,
      "顺势": 10834,
      "大声喝道": 10835,
      "暗暗叫苦": 10836,
      "拱手道": 10837,
      "支持不住": 10838,
      "上人": 10839,
      "世镜": 10840,
      "他去": 10841,
      "但我": 10842,
      "你放心": 10843,
      "医治": 10844,
      "却听得": 10845,
      "叫他们": 10846,
      "向天": 10847,
      "呐喊": 10848,
      "命在": 10849,
      "大发": 10850,
      "大恩": 10851,
      "失色": 10852,
      "守在": 10853,
      "完了": 10854,
      "官员": 10855,
      "屋里": 10856,
      "平生": 10857,
      "当头": 10858,
      "影踪": 10859,
      "得快": 10860,
      "怜惜": 10861,
      "我把": 10862,
      "我早": 10863,
      "挡格": 10864,
      "是她": 10865,
      "曲非烟": 10866,
      "有心": 10867,
      "正经": 10868,
      "沉思": 10869,
      "清晨": 10870,
      "相隔": 10871,
      "童兆和": 10872,
      "结果": 10873,
      "莫怪": 10874,
      "虽在": 10875,
      "逃命": 10876,
      "那倒": 10877,
      "难免": 10878,
      "咱们的": 10879,
      "这些日子": 10880,
      "了几步": 10881,
      "太后道": 10882,
      "又有何": 10883,
      "老头儿": 10884,
      "使个眼色": 10885,
      "白寒枫": 10886,
      "一杯": 10887,
      "传出": 10888,
      "到她": 10889,
      "南京": 10890,
      "又叫": 10891,
      "发射": 10892,
      "受人": 10893,
      "另一名": 10894,
      "只求": 10895,
      "四五": 10896,
      "四十二": 10897,
      "国姓": 10898,
      "坏事": 10899,
      "坐起": 10900,
      "外公": 10901,
      "大义": 10902,
      "奉命": 10903,
      "害我": 10904,
      "寒气": 10905,
      "已到": 10906,
      "已自": 10907,
      "帮中": 10908,
      "得远了": 10909,
      "我妈妈": 10910,
      "挡开": 10911,
      "捉拿": 10912,
      "有难": 10913,
      "棺材": 10914,
      "殿中": 10915,
      "泄露": 10916,
      "烛光": 10917,
      "玫瑰": 10918,
      "琢磨": 10919,
      "痛楚": 10920,
      "的长": 10921,
      "的掌力": 10922,
      "盘旋": 10923,
      "真要": 10924,
      "知晓": 10925,
      "空见": 10926,
      "竟将": 10927,
      "苦头陀": 10928,
      "跟我们": 10929,
      "连叫": 10930,
      "郭伯伯": 10931,
      "醒来": 10932,
      "风清": 10933,
      "飞扬": 10934,
      "骗我": 10935,
      "你这小子": 10936,
      "微微一": 10937,
      "武当山": 10938,
      "华山派的": 10939,
      "生死符": 10940,
      "久仰": 10941,
      "也想": 10942,
      "了进来": 10943,
      "倒地": 10944,
      "借力": 10945,
      "刺入": 10946,
      "双侠": 10947,
      "叫得": 10948,
      "嗡嗡": 10949,
      "均觉": 10950,
      "处穴道": 10951,
      "大将军": 10952,
      "好容易": 10953,
      "子穆": 10954,
      "宝象": 10955,
      "对答": 10956,
      "小贼": 10957,
      "尤其": 10958,
      "幸亏": 10959,
      "彦超": 10960,
      "往地下": 10961,
      "我本来": 10962,
      "拳头": 10963,
      "提着": 10964,
      "摇摇头": 10965,
      "更有": 10966,
      "林师弟": 10967,
      "欲待": 10968,
      "正色": 10969,
      "流血": 10970,
      "清军": 10971,
      "甚喜": 10972,
      "的师父": 10973,
      "的地方": 10974,
      "省悟": 10975,
      "睡觉": 10976,
      "粉碎": 10977,
      "钻入": 10978,
      "闲事": 10979,
      "陆庄主": 10980,
      "面颊": 10981,
      "有一位": 10982,
      "少林寺中": 10983,
      "从未见过": 10984,
      "张康年": 10985,
      "三声": 10986,
      "上写": 10987,
      "不杀": 10988,
      "世界": 10989,
      "他不得": 10990,
      "你给我": 10991,
      "依着": 10992,
      "做什么": 10993,
      "兆惠": 10994,
      "分明": 10995,
      "剑鞘": 10996,
      "叹息": 10997,
      "嗓子": 10998,
      "孟健雄": 10999,
      "害人": 11000,
      "少室": 11001,
      "我听": 11002,
      "文武": 11003,
      "料理": 11004,
      "极快": 11005,
      "深仇": 11006,
      "见是": 11007,
      "说的是": 11008,
      "跌落": 11009,
      "那大": 11010,
      "黄眉僧": 11011,
      "齐声道": 11012,
      "这些年来": 11013,
      "说着向": 11014,
      "得很了": 11015,
      "放在桌上": 11016,
      "哪知他": 11017,
      "仪琳道": 11018,
      "小小年纪": 11019,
      "旁观众人": 11020,
      "送了性命": 11021,
      "玉女心经": 11022,
      "公冶乾": 11023,
      "轻身功夫": 11024,
      "越想越": 11025,
      "自言自语": 11026,
      "不然": 11027,
      "与杨过": 11028,
      "作势": 11029,
      "侍剑": 11030,
      "像是": 11031,
      "决不是": 11032,
      "勒马": 11033,
      "南山": 11034,
      "却在": 11035,
      "后悔": 11036,
      "向郭靖": 11037,
      "命丧": 11038,
      "在半空": 11039,
      "声叫道": 11040,
      "孤身": 11041,
      "峰上": 11042,
      "常常": 11043,
      "店伴": 11044,
      "我怎": 11045,
      "戒备": 11046,
      "抖动": 11047,
      "数年": 11048,
      "无名": 11049,
      "更增": 11050,
      "来找": 11051,
      "深入": 11052,
      "白世镜": 11053,
      "的时候": 11054,
      "的法门": 11055,
      "睡着了": 11056,
      "稳稳": 11057,
      "箫声": 11058,
      "自刎": 11059,
      "舍命": 11060,
      "讨好": 11061,
      "让开": 11062,
      "飞天": 11063,
      "高彦超": 11064,
      "麻烦": 11065,
      "只见一个": 11066,
      "原来这": 11067,
      "再也忍耐不住": 11068,
      "这两句话": 11069,
      "向问天道": 11070,
      "光明顶": 11071,
      "光闪闪": 11072,
      "马蹄声响": 11073,
      "一刻": 11074,
      "万人": 11075,
      "也就是了": 11076,
      "于人": 11077,
      "仪清": 11078,
      "但见她": 11079,
      "你叫我": 11080,
      "兄妹": 11081,
      "其妙": 11082,
      "出家人": 11083,
      "则是": 11084,
      "大悟": 11085,
      "大骇": 11086,
      "希仁": 11087,
      "弟兄": 11088,
      "恶鬼": 11089,
      "数月": 11090,
      "昨天": 11091,
      "武师": 11092,
      "甘心": 11093,
      "脸现": 11094,
      "荒山": 11095,
      "转动": 11096,
      "近年来": 11097,
      "还得": 11098,
      "鬼鬼": 11099,
      "鸳鸯": 11100,
      "这一刀": 11101,
      "心中大喜": 11102,
      "脸色大变": 11103,
      "丘处机道": 11104,
      "半夜里": 11105,
      "一响": 11106,
      "三次": 11107,
      "上冲": 11108,
      "不迟": 11109,
      "不清楚": 11110,
      "世子": 11111,
      "乘风": 11112,
      "八个": 11113,
      "却要": 11114,
      "口诀": 11115,
      "如电": 11116,
      "尽心": 11117,
      "惊惧": 11118,
      "成一": 11119,
      "扑去": 11120,
      "断剑": 11121,
      "暗道": 11122,
      "灵智": 11123,
      "父女": 11124,
      "狗杂种": 11125,
      "狠毒": 11126,
      "琵琶": 11127,
      "男孩": 11128,
      "相抗": 11129,
      "眼眶": 11130,
      "等他": 11131,
      "精明": 11132,
      "绿竹": 11133,
      "聚贤": 11134,
      "胁下": 11135,
      "见得": 11136,
      "说明": 11137,
      "说些什么": 11138,
      "请安": 11139,
      "跳起身来": 11140,
      "身处": 11141,
      "那姑娘": 11142,
      "靖儿": 11143,
      "颜色": 11144,
      "骁骑": 11145,
      "高深": 11146,
      "数十人": 11147,
      "乔峰道": 11148,
      "大喝一声": 11149,
      "全神贯注": 11150,
      "司空玄": 11151,
      "不似": 11152,
      "不舍": 11153,
      "不透": 11154,
      "严密": 11155,
      "为之": 11156,
      "亲近": 11157,
      "今而后": 11158,
      "他奶奶的": 11159,
      "以便": 11160,
      "做事": 11161,
      "十七八": 11162,
      "同行": 11163,
      "圣旨": 11164,
      "大漠": 11165,
      "姿式": 11166,
      "尺许": 11167,
      "带领": 11168,
      "惶急": 11169,
      "所说的": 11170,
      "手一": 11171,
      "拉开": 11172,
      "星竹": 11173,
      "昨日": 11174,
      "有事": 11175,
      "来人": 11176,
      "极重": 11177,
      "果见": 11178,
      "洛阳": 11179,
      "活命": 11180,
      "深湛": 11181,
      "渊源": 11182,
      "的都是": 11183,
      "的身子": 11184,
      "石帮主": 11185,
      "簌簌": 11186,
      "要待": 11187,
      "越远": 11188,
      "过人": 11189,
      "造诣": 11190,
      "马头": 11191,
      "鲁莽": 11192,
      "鹰爪": 11193,
      "黑影": 11194,
      "年纪虽": 11195,
      "实在太": 11196,
      "一步步": 11197,
      "客店中": 11198,
      "不作声": 11199,
      "定闲师太": 11200,
      "黑暗之中": 11201,
      "一转": 11202,
      "万岁": 11203,
      "不二": 11204,
      "丧命": 11205,
      "中指": 11206,
      "仗着": 11207,
      "你已": 11208,
      "决不敢": 11209,
      "几年": 11210,
      "半边": 11211,
      "南希仁": 11212,
      "去救": 11213,
      "号角": 11214,
      "名头": 11215,
      "噗的一声": 11216,
      "围在": 11217,
      "堂堂": 11218,
      "声谷": 11219,
      "大弟子": 11220,
      "就可": 11221,
      "就如": 11222,
      "左子穆": 11223,
      "平素": 11224,
      "店中": 11225,
      "弓箭": 11226,
      "总之": 11227,
      "惊异": 11228,
      "惨呼": 11229,
      "戚长发": 11230,
      "把握": 11231,
      "摸到": 11232,
      "斯科": 11233,
      "有一个": 11234,
      "望一眼": 11235,
      "沙漠": 11236,
      "爹娘": 11237,
      "狂奔": 11238,
      "由此": 11239,
      "的么": 11240,
      "的花": 11241,
      "的说话": 11242,
      "的本事": 11243,
      "睁眼": 11244,
      "示意": 11245,
      "竟敢": 11246,
      "竟能": 11247,
      "章经": 11248,
      "练剑": 11249,
      "缩回": 11250,
      "罕见": 11251,
      "老贼": 11252,
      "老乌龟": 11253,
      "耽搁": 11254,
      "莫斯科": 11255,
      "要是我": 11256,
      "追上": 11257,
      "郑公子": 11258,
      "长春": 11259,
      "阮星竹": 11260,
      "须当": 11261,
      "自己性命": 11262,
      "如此说": 11263,
[...]
